<unk>	0
<s>	0
</s>	0
▁	-2.77504
、	-3.90828
!	-3.96239
の	-4.46495
。	-4.52581
は	-4.83263
で	-4.93973
(	-4.9859
が	-5.01432
?	-5.08392
に	-5.09069
...	-5.09192
も	-5.09929
と	-5.2882
!!	-5.32693
)	-5.32952
を	-5.49806
ね	-5.53382
ー	-5.54153
✨	-5.55477
です	-5.62556
さん	-5.65119
〜	-5.70733
から	-5.72948
w	-5.74887
よ	-5.76877
な	-5.77282
って	-5.85615
笑	-5.86485
か	-5.94052
😊	-6.02809
ちゃん	-6.14117
1	-6.1792
し	-6.19037
🤣	-6.20841
ω	-6.26248
😂	-6.34751
!!!	-6.35928
っ	-6.38674
😭	-6.41532
とか	-6.43167
て	-6.49021
♡	-6.49772
💦	-6.53101
☺️	-6.53749
して	-6.53964
る	-6.54377
ですね	-6.56446
や	-6.57643
💕	-6.61499
ん	-6.64235
た	-6.65542
www	-6.65769
▁ありがとうございます	-6.66182
🥰	-6.67313
▁)	-6.68202
けど	-6.69207
......	-6.70706
▁おはようございます	-6.73505
～	-6.74499
でも	-6.75204
い	-6.75893
😆	-6.76044
2	-6.77847
わ	-6.78427
お	-6.78692
🥺	-6.8207
人	-6.85798
!!️	-6.87635
」	-6.87675
ので	-6.87715
だ	-6.90148
(*	-6.96385
なら	-6.96794
ノ	-6.96902
.	-6.98655
よね	-6.99504
だから	-7.01094
かな	-7.01143
o	-7.01164
😅	-7.01556
する	-7.0358
ます	-7.04201
ありがとうございます	-7.04241
ww	-7.0445
🥹	-7.05355
「	-7.05497
ありがとう	-7.07013
ら	-7.07096
♪	-7.1002
ない	-7.10481
▁(	-7.1122
3	-7.12362
り	-7.13058
▁私も	-7.1493
??	-7.18783
した	-7.18802
日	-7.21238
また	-7.22026
👍	-7.23162
だよ	-7.25856
▁え	-7.26493
▁ありがとう	-7.2718
さ	-7.29111
❤️	-7.30261
もう	-7.30386
&	-7.30758
く	-7.32562
・	-7.33714
ました	-7.34066
;	-7.34424
まで	-7.34495
▁あ	-7.34632
くん	-7.34963
なので	-7.37
でした	-7.37397
そう	-7.38086
す	-7.39082
あ	-7.39479
๑	-7.39983
▁お	-7.40954
だけ	-7.42303
❣️	-7.43592
!?	-7.44699
〜!	-7.45116
!!!!	-7.45491
ᴗ	-7.48858
🤭	-7.52839
🙏	-7.52988
😍	-7.55692
う	-7.5795
してる	-7.58312
します	-7.58732
私も	-7.59186
▁でも	-7.59385
こ	-7.59398
いい	-7.599
ですよね	-7.6086
🥲	-7.61006
み	-7.62438
▁また	-7.63047
▁おは	-7.632
▁́	-7.63349
、、、	-7.648
笑笑	-7.64963
なんて	-7.6543
え	-7.65577
😇	-7.65736
😁	-7.65975
年	-7.66723
こと	-7.66735
だった	-7.67419
つ	-7.67568
には	-7.67857
▁こちらこそ	-7.68103
ᐟ	-7.69196
🎍	-7.69334
時間	-7.69912
なぁ	-7.70688
🤔	-7.71133
m	-7.71417
▁もう	-7.71471
だけど	-7.71917
さんの	-7.72219
lt	-7.7249
この	-7.72742
まだ	-7.73276
ねぇ	-7.73292
たら	-7.74122
嬉しい	-7.74848
🎶	-7.74914
✨✨	-7.76073
めっちゃ	-7.7623
時	-7.76625
4	-7.77114
いる	-7.78263
可愛い	-7.78639
ある	-7.78666
だね	-7.78712
▁おはよう	-7.78978
🫶	-7.79099
好き	-7.79219
💗	-7.79553
gt	-7.79716
なんか	-7.79814
やん	-7.79977
-	-7.80466
き	-7.81232
ッ	-7.81874
ス	-7.81913
よー	-7.82311
見	-7.82568
私	-7.82828
☀️	-7.82977
5	-7.8362
`*)	-7.85054
その	-7.86215
و	-7.86647
😌	-7.87224
ですか	-7.87676
かも	-7.88073
今	-7.88327
おはようございます	-7.88403
月	-7.88426
`)	-7.88457
▁今年も	-7.88651
ください	-7.88968
💖	-7.89131
より	-7.89208
💓	-7.89549
ちゃんと	-7.89758
しか	-7.90172
🤗	-7.90327
一緒に	-7.90448
ですが	-7.91214
ぞ	-7.91549
←	-7.9179
▁私は	-7.92869
大	-7.92967
🤣🤣🤣	-7.93025
すぎて	-7.93308
それ	-7.93809
🍀	-7.94863
▁あけましておめでとうございます	-7.94909
しました	-7.95023
▁今年もよろしくお願いします	-7.95133
▁「	-7.95183
▁今日は	-7.95185
'	-7.95619
▁今日も	-7.95804
だと	-7.96169
見て	-7.96432
▁おはよ	-7.9707
これ	-7.9722
たい	-7.98188
中	-7.98392
いつも	-7.98415
💜	-7.98919
~	-7.99
▁̇	-7.99217
ちゃ	-7.99453
ちょっと	-7.99693
🤣🤣	-8.00487
🙌	-8.00582
▁いや	-8.00893
🫶🏻	-8.01425
よろしくお願いします	-8.01842
ば	-8.01877
▁うん	-8.02102
()	-8.02328
🐰	-8.02704
▁1	-8.02747
😳	-8.03296
💪	-8.03798
たん	-8.03849
ですよ	-8.04121
☀	-8.04376
んだ	-8.04569
ま	-8.04676
回	-8.05433
みんな	-8.05646
良い	-8.05905
🔥	-8.06753
したい	-8.06982
▁私	-8.07321
すぎる	-8.07698
🤍	-8.07819
ド	-8.0857
のに	-8.08902
▁なんか	-8.08997
何	-8.09122
くらい	-8.09172
のは	-8.09186
•	-8.09199
たくさん	-8.09613
へ	-8.10603
かわいい	-8.10648
ねー	-8.10795
ありがとうございました	-8.10848
方	-8.10889
本当に	-8.11477
できる	-8.11695
んで	-8.11755
いっぱい	-8.11835
😃	-8.12316
なの	-8.1236
ト	-8.12375
いた	-8.12971
ご	-8.12979
絶対	-8.13048
にも	-8.13302
になる	-8.13311
_	-8.13471
...!	-8.13652
:	-8.1381
分	-8.14034
んだけど	-8.14097
仕事	-8.14411
`	-8.14522
🎉	-8.14645
ア	-8.14921
したら	-8.14951
ず	-8.15494
▁はい	-8.15636
さんも	-8.15667
という	-8.16649
番	-8.16714
ーー	-8.17022
全然	-8.17566
▁*	-8.17858
!!!!!	-8.17939
ろ	-8.17995
10	-8.18017
一	-8.18357
なくて	-8.18467
😢	-8.18511
なかった	-8.18892
😄	-8.1894
ち	-8.19083
った	-8.19462
イ	-8.19523
▁この	-8.19688
🎄	-8.19757
め	-8.20075
▁́ω	-8.20483
本	-8.20577
🤤	-8.20947
出	-8.21086
だし	-8.21277
▁今	-8.2143
れ	-8.21539
ン	-8.22462
ーーー	-8.23026
だよね	-8.23059
^	-8.23904
ほんと	-8.24253
*	-8.24461
やつ	-8.24476
私は	-8.25051
🙇‍♀️	-8.25128
よう	-8.2571
ぜ	-8.2606
▁́꒳	-8.26643
😉	-8.26748
今日	-8.26784
✌️	-8.26801
🌸	-8.27046
様	-8.27164
😭😭	-8.27231
💙	-8.27634
めちゃくちゃ	-8.27648
子	-8.27664
s	-8.28277
頑張って	-8.28278
すごい	-8.28552
欲しい	-8.28722
む	-8.29023
事	-8.29057
・)	-8.29129
ぁ	-8.29281
▁ほんと	-8.29331
"	-8.29402
💞	-8.29434
じゃん	-8.29448
やって	-8.29901
i	-8.30121
▁2	-8.30122
☆	-8.30171
ずっと	-8.30675
もん	-8.30864
ちゃんの	-8.31232
▁それは	-8.31353
▁いつも	-8.31363
じゃ	-8.31708
行く	-8.31731
みたい	-8.32262
???	-8.32397
❕	-8.32857
いいね	-8.32896
▁今日	-8.33589
いて	-8.33677
話	-8.33759
じゃない	-8.33795
よく	-8.34211
❗️	-8.34301
リ	-8.34504
ク	-8.35181
wwww	-8.35273
▁́・	-8.35351
なんで	-8.35558
嬉しいです	-8.35742
そんな	-8.35944
あと	-8.36207
?!	-8.36278
▁そして	-8.3642
T	-8.37039
▁まだ	-8.37522
🙇‍♂️	-8.37795
🎵	-8.37923
🥳	-8.37928
٩	-8.3798
〜!!	-8.38005
▁あと	-8.38352
▁それ	-8.38414
配信	-8.3876
❤	-8.38883
と思います	-8.39134
もっと	-8.39157
!?️	-8.39522
では	-8.39775
▁おはよー	-8.40434
位	-8.40825
▁みんな	-8.40997
▁今年は	-8.4121
マ	-8.41362
のか	-8.41593
カ	-8.41599
▁̄	-8.41842
良かった	-8.4193
楽しい	-8.42577
▁̆	-8.42957
ぅ	-8.432
シ	-8.43386
目	-8.43389
でしょ	-8.43518
ル	-8.43609
▁そう	-8.43616
じ	-8.44098
😭😭😭	-8.44697
います	-8.4479
(?)	-8.45158
きた	-8.45243
になって	-8.45355
リプ	-8.45431
素敵な	-8.45471
早く	-8.45682
全部	-8.46302
最高	-8.46314
▁来年も	-8.46393
やろ	-8.46567
ゲーム	-8.46687
』	-8.46752
やる	-8.47055
手	-8.47094
キ	-8.47319
みたいな	-8.47517
ゆっくり	-8.47703
,	-8.4881
おはよう	-8.48865
😋	-8.49183
とは	-8.4925
せ	-8.49259
▁̇꒳	-8.493
💛	-8.49332
感じ	-8.49926
ど	-8.49962
...(	-8.50321
▁おめでとうございます	-8.50504
楽しみ	-8.5076
そ	-8.50854
ながら	-8.51078
🙇	-8.51122
▁̫	-8.51147
ぜひ	-8.51238
ズ	-8.51298
気	-8.51313
なのに	-8.51436
今年も	-8.5146
大丈夫	-8.51857
✧	-8.51947
🙄	-8.51979
6	-8.52124
♥️	-8.52145
...?	-8.52266
▁明けましておめでとうございます	-8.52483
してます	-8.52486
🌟	-8.52639
すぐ	-8.52699
ありがと	-8.5272
コ	-8.52897
あり	-8.53214
くる	-8.53415
っと	-8.535
ナ	-8.53576
ラ	-8.53719
色々	-8.54109
▁めっちゃ	-8.54117
😎	-8.54192
▁これ	-8.54219
沢山	-8.54645
ように	-8.54771
クリスマス	-8.54774
▁3	-8.54799
ฅ	-8.54921
だけで	-8.54993
ほんとに	-8.55107
物	-8.55159
さんが	-8.55182
ません	-8.55216
け	-8.55318
なー	-8.55487
▁おやすみ	-8.55562
▁ありがと	-8.5568
/	-8.55745
あの	-8.55921
と思う	-8.56058
💚	-8.5646
▁あけおめ	-8.56546
タ	-8.56579
してた	-8.56733
会	-8.56839
👏	-8.56907
やった	-8.57038
ちゃんも	-8.57279
・・・	-8.5736
時に	-8.57705
オ	-8.57794
にゃ	-8.57873
😘	-8.58348
力	-8.58496
▁その	-8.58551
Twitter	-8.58819
同じ	-8.58887
DM	-8.58907
▁じゃあ	-8.58948
すぎ	-8.59122
前	-8.59211
😱	-8.59526
✨️	-8.59553
少し	-8.59698
今日は	-8.59746
お願いします	-8.59926
;)	-8.60125
▁よろしくお願いします	-8.60131
あれ	-8.60161
おめでとうございます	-8.60351
として	-8.60415
ぇ	-8.60493
前に	-8.60579
私の	-8.60754
ネ	-8.60831
歳	-8.61175
それは	-8.61332
幸せ	-8.61447
のが	-8.61494
名	-8.61667
休み	-8.61678
万	-8.6171
感	-8.61796
明日	-8.62174
無理	-8.62296
愛	-8.62638
・`)	-8.63114
7	-8.6321
..	-8.63293
▁・	-8.6343
՞	-8.63644
▁確かに	-8.63697
大好き	-8.6386
▁こんばんは	-8.64027
もの	-8.64061
がある	-8.64085
▁明日	-8.6434
買って	-8.64434
っす	-8.645
いく	-8.64688
者	-8.65025
今日も	-8.65215
円	-8.65292
ツイート	-8.65342
▁̖́-	-8.65448
あけましておめでとうございます	-8.65878
▁あれ	-8.66022
色	-8.66107
°	-8.66445
おめでとう	-8.66471
上	-8.66575
ᗜ	-8.66688
フ	-8.67035
😂😂	-8.67192
ツ	-8.67227
わかる	-8.67231
ますね	-8.67308
てる	-8.67503
の方が	-8.67552
ジ	-8.67552
ウ	-8.67617
▁ちょっと	-8.67713
▁まぁ	-8.67878
ふ	-8.67908
ニ	-8.68071
b	-8.68182
おは	-8.68324
自分の	-8.68366
外	-8.68462
頑張ります	-8.68787
C	-8.6886
行って	-8.68935
推し	-8.68947
毎日	-8.69202
🧡	-8.6932
食べて	-8.69382
ぬ	-8.6941
!!︎	-8.69521
ライブ	-8.69556
▁やっぱり	-8.69678
ぃ	-8.69858
予定	-8.69879
ロ	-8.69903
→	-8.70222
び	-8.70341
最近	-8.70488
🫣	-8.70517
ガ	-8.70567
▁なるほど	-8.70748
だな	-8.70813
おはよ	-8.70869
神	-8.70992
『	-8.71075
さんに	-8.71353
レ	-8.71574
ぴ	-8.71711
チ	-8.71762
パ	-8.71788
かなぁ	-8.71818
みて	-8.71939
多分	-8.72045
しかない	-8.72577
度	-8.72593
数	-8.72604
からね	-8.72992
▁最近	-8.73001
夜	-8.7304
心	-8.73053
8	-8.73159
バ	-8.73222
よかった	-8.73351
ミ	-8.73544
金	-8.73724
ぐ	-8.73776
🤩	-8.74065
とこ	-8.74096
くれ	-8.74111
️	-8.74149
▁そんな	-8.74292
▁_)	-8.75028
交換	-8.75385
結構	-8.75442
やっぱり	-8.75558
▁́)	-8.75633
きて	-8.75836
︎	-8.75918
すき	-8.75948
👀	-8.76018
ム	-8.76035
きっと	-8.76224
された	-8.76256
是非	-8.76266
くて	-8.763
だろ	-8.76652
ᐡ	-8.76719
A	-8.77067
生	-8.77254
サ	-8.77341
顔	-8.77366
点	-8.77536
ヾ	-8.77536
ないから	-8.77647
▁とりあえず	-8.77761
S	-8.77833
▁本当に	-8.78118
D	-8.78146
💭	-8.78378
さんは	-8.78387
👍🏻	-8.78409
しない	-8.78668
時は	-8.78827
ほしい	-8.78946
お疲れ様でした	-8.79357
ダ	-8.79447
30	-8.79511
どう	-8.7963
される	-8.79685
20	-8.79726
プ	-8.79864
▁あー	-8.79966
▁これは	-8.80298
さんと	-8.80319
三	-8.80415
ほど	-8.80513
^^	-8.806
さんおはようございます	-8.80648
ボ	-8.80681
ᴗ͈	-8.81261
後	-8.81374
M	-8.81667
▁.	-8.81787
しよ	-8.81827
あった	-8.82074
何か	-8.82272
。。。	-8.82436
になった	-8.82529
そして	-8.82605
夢	-8.82691
着	-8.82929
もんね	-8.83094
キャラ	-8.83138
ヽ	-8.83216
強い	-8.83232
♥	-8.83268
▁;	-8.83679
💕💕	-8.83729
🫠	-8.83805
んですね	-8.83824
☺	-8.84092
水	-8.84208
今年は	-8.84248
フォロー	-8.84319
ちゃう	-8.84445
れば	-8.84494
(*^^*)	-8.8459
▁あっ	-8.84591
🎀	-8.84598
違う	-8.84835
人で	-8.84849
べ	-8.84957
らしい	-8.8547
所	-8.85642
やばい	-8.85732
山	-8.85819
だったら	-8.85857
▁お疲れ様です	-8.861
テ	-8.86241
グ	-8.86248
言って	-8.86406
と思って	-8.86657
こんな	-8.86844
家	-8.869
こんばんは	-8.87034
ぐらい	-8.87053
戦	-8.87253
ワ	-8.87331
こちらこそ	-8.87366
▁こんにちは	-8.87445
はず	-8.87723
初めて	-8.88128
んだよ	-8.88193
なん	-8.88226
先	-8.8833
д	-8.88446
足	-8.88466
お疲れ様	-8.88496
+	-8.88572
朝	-8.88583
のかな	-8.88793
c	-8.88874
▁良いお年を	-8.89053
口	-8.89137
系	-8.89157
エ	-8.89167
ぶ	-8.89263
なく	-8.89269
|	-8.89298
ブ	-8.89547
高	-8.89599
;`)	-8.89651
方が	-8.89661
▁ぜひ	-8.89985
写真	-8.90023
食べ	-8.90173
体	-8.90342
ヤ	-8.90484
かぁ	-8.90507
んです	-8.90725
優しい	-8.90768
ビ	-8.90936
100	-8.91036
部	-8.91075
枚	-8.91165
😊✨	-8.91197
作って	-8.9129
ひ	-8.91358
ほ	-8.91538
メ	-8.91588
ハ	-8.91634
行きたい	-8.91654
出来る	-8.91701
できない	-8.91709
✨✨✨	-8.91782
元気	-8.91815
雪	-8.91839
🐶	-8.91895
しながら	-8.91901
長	-8.91979
のですが	-8.92028
俺	-8.92084
来る	-8.92112
▁॑꒳	-8.92164
私が	-8.92362
۶	-8.92587
▁うんうん	-8.92664
されて	-8.92679
▁それな	-8.92686
マン	-8.92792
だわ	-8.92864
来年も	-8.92973
▁これからも	-8.92979
▁可愛い	-8.93043
にして	-8.93126
のこと	-8.93251
なかなか	-8.93291
▁来年もよろしくお願いします	-8.93326
怖い	-8.93388
▁゚	-8.93451
0	-8.93562
男	-8.93589
個	-8.93593
〜〜	-8.93596
お仕事	-8.9379
大変	-8.93941
なる	-8.93948
取り	-8.94013
今年もよろしくお願いします	-8.94023
これは	-8.9452
持って	-8.94544
▁お疲れ様でした	-8.94571
9	-8.94584
デ	-8.94592
(_	-8.94827
^)	-8.94872
ところ	-8.94926
くれる	-8.94955
▁今年もよろしくね	-8.95176
❓	-8.95293
楽しく	-8.95436
wwwww	-8.95489
こさん	-8.95528
▁́艸	-8.95582
B	-8.95587
なのか	-8.95588
🫡	-8.9567
かった	-8.95694
▁う	-8.95701
気持ち	-8.95713
めちゃ	-8.95776
曲	-8.9594
▁おめでとう	-8.95994
無	-8.96023
下	-8.96178
!!!!!!	-8.9631
▁素敵な	-8.96355
んですか	-8.96355
とても	-8.9647
】	-8.96548
させて	-8.9664
▁お疲れ様	-8.96686
下さい	-8.96953
ましょう	-8.96964
❗	-8.96997
.........	-8.97152
▁ま	-8.97196
とき	-8.97213
んですけど	-8.97245
y	-8.97296
なんだ	-8.97361
頭	-8.97382
ような	-8.97416
しっかり	-8.97651
▁あの	-8.97777
ねえ	-8.97798
味	-8.97953
▁'	-8.98022
高い	-8.98103
凄い	-8.9819
動画	-8.98416
～!	-8.98499
ゆ	-8.9855
よろしく	-8.98564
e	-8.98899
t	-8.98945
ぎ	-8.99004
▁ほんとに	-8.99244
車	-8.99287
頑張る	-8.99552
祝️	-8.99578
しまった	-8.99604
道	-8.99768
🌈	-8.99821
ᐢ	-8.99864
ꉂ	-8.99881
るの	-8.99885
今年	-8.99886
꒳	-8.99899
😂😂😂	-9.00012
いない	-9.00026
寝	-9.00041
げ	-9.00149
ง	-9.00171
人が	-9.00241
人は	-9.0034
見た	-9.0044
来て	-9.00587
になりました	-9.00846
d	-9.0085
▁もちろん	-9.00896
あって	-9.01008
n	-9.01023
wwwwww	-9.01031
▁何	-9.01038
んですが	-9.0121
まじで	-9.01234
▁えっ	-9.01252
れる	-9.0128
O	-9.01388
よろしくね	-9.01392
さま	-9.01506
🎁	-9.01594
(^	-9.01675
❤️‍🔥	-9.0168
すみません	-9.01921
聞いて	-9.01974
⁠	-9.01991
なあ	-9.02096
おやすみ	-9.02157
やな	-9.02221
ぉ	-9.02389
君	-9.02434
☺️✨	-9.02528
やで	-9.02532
((	-9.02546
ないと	-9.02605
自分	-9.0267
•́)	-9.02867
ヨ	-9.02908
の方	-9.02934
モ	-9.02969
チャ	-9.03119
▁ちなみに	-9.03123
ァ	-9.03128
代	-9.03164
いや	-9.03241
まじ	-9.03407
u	-9.03603
ええ	-9.03752
▁ᐛ	-9.0379
楽しかった	-9.04151
かい	-9.04241
名前	-9.04536
んですよね	-9.04548
セ	-9.04674
いつか	-9.04681
無い	-9.04707
ごめん	-9.04714
普通に	-9.04812
...。	-9.04913
心配	-9.04959
しちゃう	-9.0506
的に	-9.05161
🍵	-9.0519
小	-9.05384
女	-9.05386
なって	-9.05699
k	-9.05804
声	-9.05867
🎂	-9.06012
▁多分	-9.06096
用	-9.06163
性	-9.06198
♡♡	-9.06218
a	-9.06226
明けましておめでとうございます	-9.06373
ˋ*)	-9.06376
まる	-9.06581
からの	-9.0661
られる	-9.06639
あけおめ	-9.06764
やってる	-9.06883
悪い	-9.06981
▁わかる	-9.06987
不	-9.0702
すごく	-9.07137
▁昨日	-9.07175
੭	-9.07262
▁なんで	-9.07352
素敵	-9.07369
▁来年は	-9.07478
見る	-9.07527
人の	-9.07613
▁2023	-9.07621
▁えー	-9.07627
美味しい	-9.0794
しよう	-9.08012
よろしくお願いいたします	-9.08021
音	-9.08076
田	-9.08245
白	-9.08251
るから	-9.08279
▁私の	-9.08346
枠	-9.08448
▁俺	-9.08525
使って	-9.08595
楽	-9.0884
=	-9.08956
😆✨	-9.08964
行	-9.09057
こんにちは	-9.09206
パン	-9.09227
ないけど	-9.09259
P	-9.09325
面白い	-9.09444
見たい	-9.09483
▁まじ	-9.09577
•̀	-9.09722
先生	-9.09741
のやつ	-9.10027
ゴ	-9.10191
お互い	-9.10376
食べる	-9.10426
▁^	-9.10427
気がする	-9.10495
これからも	-9.10574
よぉ	-9.10773
参加	-9.10824
▁いえいえ	-9.10845
絵	-9.10856
空	-9.10915
とも	-9.11041
いきます	-9.11052
ソ	-9.11073
▁めちゃくちゃ	-9.11077
行ける	-9.11102
ってこと	-9.11136
風	-9.11243
なり	-9.11368
言う	-9.11539
𐤔	-9.11584
ぼ	-9.11653
▁絶対	-9.1173
p	-9.11744
▁今年	-9.11748
ケ	-9.11849
すると	-9.11912
思い	-9.11991
▁一緒に	-9.12283
”	-9.12368
スト	-9.12368
ケーキ	-9.12414
よな	-9.1251
昨日	-9.1263
ですかね	-9.12857
▁お互い	-9.12937
😚	-9.12942
ちゃんが	-9.13016
▁み	-9.13025
じゃなくて	-9.13291
二	-9.13304
❤︎	-9.1336
やりたい	-9.13426
買う	-9.13536
▁かわいい	-9.13566
々	-9.13595
楽しんで	-9.13614
?(	-9.13629
▁́;	-9.14078
食	-9.14122
ってる	-9.14349
何も	-9.14418
そうです	-9.14476
こう	-9.14587
仲間	-9.147
これから	-9.1474
考え	-9.14764
))	-9.14793
😀	-9.14828
寝て	-9.14986
こそ	-9.15141
なんだけど	-9.15243
😏	-9.15304
垢	-9.15339
イン	-9.15361
よろしくお願い致します	-9.15442
ございます	-9.15469
来	-9.15683
▁わたしも	-9.15742
っち	-9.15776
🎅	-9.15789
早い	-9.15805
地	-9.15993
▁俺も	-9.16048
っていう	-9.16108
感謝	-9.16108
🙏✨	-9.16142
▁大丈夫	-9.16239
など	-9.16436
間	-9.16461
▁まあ	-9.16466
的な	-9.16518
新	-9.16715
教えて	-9.17084
▁そうそう	-9.17101
▁さすが	-9.17163
初	-9.17173
12	-9.17211
食べた	-9.17299
さんありがとうございます	-9.17389
いける	-9.17603
やり	-9.17686
ツイ	-9.17861
🙌🏻	-9.17924
お疲れ様です	-9.17927
🍻	-9.1822
(・	-9.18355
▁今度	-9.18371
ラン	-9.1838
きました	-9.18449
でしょうか	-9.18454
ポ	-9.18462
おはよー	-9.18473
っぽい	-9.18531
✋	-9.18566
▁早く	-9.18631
G	-9.18643
終わった	-9.18725
引き	-9.1877
?」	-9.18869
過ぎて	-9.19048
あります	-9.19114
こちゃん	-9.19191
んだよね	-9.19384
(((	-9.19398
してない	-9.19441
してください	-9.19503
食べたい	-9.19559
ると	-9.19663
▁́∀`*)	-9.19701
人間	-9.19775
なきゃ	-9.1981
歌	-9.19849
🙆‍♀️	-9.19894
▁そ	-9.19924
気が	-9.20304
ちゃんは	-9.20316
✊	-9.20402
しましょう	-9.20521
ことを	-9.20625
▁初めまして	-9.20684
▁全然	-9.20696
ぽ	-9.20924
マジで	-9.20937
出る	-9.20943
って感じ	-9.20967
している	-9.21104
応援	-9.21168
プレゼント	-9.21187
ε	-9.21388
...!!	-9.2141
内	-9.21427
コン	-9.21562
•́	-9.21567
ちゃった	-9.21599
ザ	-9.21626
▁はじめまして	-9.21649
寝る	-9.21703
ファン	-9.21814
▁I	-9.21879
全	-9.21934
かなり	-9.22015
やら	-9.22033
○	-9.22107
のよ	-9.22131
くれて	-9.22178
なし	-9.22181
つく	-9.22196
ダメ	-9.22243
🌙	-9.22297
出して	-9.22482
R	-9.22518
作	-9.22583
▁あら	-9.22665
」「	-9.22775
直	-9.22794
Y	-9.22873
ーーーー	-9.22919
してて	-9.22981
〜✨	-9.23046
かもしれない	-9.23131
ちゃんに	-9.23173
ギ	-9.23235
ピ	-9.23306
好きです	-9.2335
v	-9.23351
K	-9.23385
とりあえず	-9.23404
▁-	-9.23445
ご飯	-9.23618
RT	-9.23621
ーん	-9.23768
良かったです	-9.23815
▁́-	-9.23819
くんの	-9.24078
ごめんなさい	-9.24194
▁おやすみなさい	-9.24372
だって	-9.24422
L	-9.24533
▁あけましておめでとう	-9.24551
服	-9.2465
🐇	-9.24928
▁́∀`)	-9.24991
〜(	-9.25061
できた	-9.25077
ゞ	-9.25109
買った	-9.25248
型	-9.25366
今度	-9.25456
んですよ	-9.25487
▁いい	-9.2551
くれた	-9.25697
もらって	-9.25732
💦💦	-9.25754
やっと	-9.25766
超	-9.25831
W	-9.25842
お休み	-9.25871
Д	-9.2601
たから	-9.26215
国	-9.26669
りん	-9.26741
F	-9.26795
▁仕事	-9.26981
どんな	-9.27065
ママ	-9.27098
飲み	-9.2725
んよ	-9.27525
会える	-9.27537
💧	-9.27565
天	-9.27727
いって	-9.27745
できて	-9.2777
ないので	-9.27825
かっこいい	-9.27893
▁クリスマス	-9.27893
だったから	-9.28122
にゃん	-9.28131
勉強	-9.28164
出て	-9.28195
ばかり	-9.28242
🥺🥺	-9.28327
みたいに	-9.28346
気分	-9.28491
しゃ	-9.28573
かけ	-9.28699
入り	-9.28892
店	-9.29105
🐱	-9.2919
あまり	-9.29249
🤲	-9.29293
ˬ	-9.29304
ますよ	-9.29311
終わり	-9.29388
多い	-9.29391
▁4	-9.29534
うれしい	-9.29566
次	-9.29572
反応	-9.29622
るよ	-9.29704
やね	-9.29762
生活	-9.29769
きます	-9.29997
とっても	-9.30057
化	-9.30351
ったら	-9.30412
勝手に	-9.30517
になります	-9.30523
イメージ	-9.30549
▁是非	-9.30588
情報	-9.30778
🌅	-9.30807
全く	-9.30827
じゃあ	-9.30894
ぱ	-9.30951
丸	-9.31003
辛い	-9.31051
してました	-9.3119
使い	-9.31276
▁まじで	-9.31304
😓	-9.31328
猫	-9.31355
まぁ	-9.31385
読んで	-9.31408
好きな	-9.31454
レベル	-9.31486
いつ	-9.31553
らん	-9.31638
゚	-9.31696
amp	-9.31718
ティ	-9.31779
ちゅ	-9.31922
お正月	-9.32045
年末	-9.32082
▁こんな	-9.32168
イベント	-9.32185
まま	-9.32371
付け	-9.32705
お金	-9.32751
長い	-9.32771
嫌	-9.32789
バー	-9.32791
🖤	-9.33154
ホ	-9.33156
的	-9.33165
やから	-9.33259
▁わーい	-9.3336
お話	-9.33381
しちゃった	-9.33485
LINE	-9.33594
2023	-9.33653
おります	-9.33694
▁実は	-9.33751
悪	-9.33878
熱	-9.33953
ワクワク	-9.33995
▁来年もよろしくね	-9.34006
買い	-9.34083
▁てか	-9.34118
確かに	-9.34215
コロナ	-9.34358
考えて	-9.34418
サン	-9.34462
一緒	-9.34494
来た	-9.34533
いました	-9.34545
’	-9.34546
🥰🥰	-9.34588
んか	-9.34695
コメント	-9.34718
場所	-9.34765
問題	-9.34816
🥹🥹	-9.34881
ちょ	-9.34929
ため	-9.35073
✊🏻	-9.35111
ないよ	-9.35196
▁こ	-9.35202
光	-9.35277
しまう	-9.353
*)	-9.35301
飲んで	-9.35337
赤	-9.35366
場	-9.35409
やすい	-9.35494
▁わー	-9.35503
....	-9.35699
🙇🏻‍♀️	-9.35791
日に	-9.359
人に	-9.35985
◝	-9.36025
どこ	-9.3618
▁S	-9.36184
ほぼ	-9.36275
持ち	-9.36416
するの	-9.36643
寒い	-9.36682
運	-9.36701
帰って	-9.36813
入れ	-9.36848
or	-9.3688
本当	-9.36895
みた	-9.36919
今は	-9.37024
られて	-9.3706
描いて	-9.3709
企画	-9.37189
なんですね	-9.37369
❄️	-9.37465
面	-9.37534
▁これから	-9.37561
くれてありがとう	-9.37753
行きます	-9.3778
入れて	-9.37852
⭐️	-9.37918
アップ	-9.37945
そうな	-9.38015
🤝	-9.38039
分かる	-9.38048
薬	-9.38146
カード	-9.38174
入	-9.38199
しないと	-9.38212
▁はーい	-9.38236
実は	-9.38265
でしたね	-9.38352
バイト	-9.38389
海	-9.38399
▁ん	-9.38478
▁おはあり	-9.38498
元	-9.38508
いいよ	-9.38562
品	-9.38665
知らない	-9.3873
最強	-9.38742
重	-9.3888
😖	-9.38967
気になる	-9.38976
サンタ	-9.39038
▁A	-9.39124
🙈	-9.39215
いいですね	-9.39269
ではない	-9.39488
難しい	-9.39599
\(	-9.39638
ことが	-9.39656
だったので	-9.39658
席	-9.397
東京	-9.39725
綺麗	-9.39748
みる	-9.39783
ちゃんありがとう	-9.39812
楽しみにしてます	-9.3989
-)	-9.39953
美	-9.40006
の話	-9.40185
シャ	-9.40234
▁僕も	-9.40242
🎊	-9.40425
宜しくお願いします	-9.40642
いつでも	-9.40651
😤	-9.40683
んだね	-9.40803
😣	-9.40963
さーん	-9.40976
肉	-9.41048
発	-9.41173
になってる	-9.41269
タイプ	-9.41337
黒	-9.41379
メンバー	-9.41417
▁a	-9.41506
出来ない	-9.41514
ーい	-9.41626
られた	-9.41659
あい	-9.41686
▁メリークリスマス	-9.41778
¦	-9.41787
▁やっぱ	-9.41887
▁良い	-9.41917
チャン	-9.41917
ですけど	-9.4196
H	-9.41967
リー	-9.42005
▁`	-9.42019
▁॑*	-9.42151
あるから	-9.42158
▁しかも	-9.42179
?🤔	-9.422
🙋‍♀️	-9.42248
酒	-9.42331
だよー	-9.42353
しても	-9.42431
準備	-9.42442
されてる	-9.42586
▁you	-9.42693
U	-9.42768
行った	-9.429
👌	-9.42911
連	-9.42963
ここ	-9.43378
🥶	-9.43382
▁そうなの	-9.43383
🙏🏻	-9.43457
あんまり	-9.43466
作る	-9.43514
居	-9.43594
台	-9.43678
川	-9.43716
▁昨日は	-9.43738
ごめんね	-9.4377
自分が	-9.43941
▁【	-9.43984
つき	-9.44061
絡み	-9.44098
N	-9.44101
▁ちゃんと	-9.44266
(ˊ	-9.44274
!?!?	-9.44355
ちゃーん	-9.44356
結果	-9.44357
ネタ	-9.44375
!」	-9.44413
ついて	-9.44421
▁ただ	-9.44486
大阪	-9.44491
今から	-9.44556
OK	-9.44566
野	-9.44575
いたら	-9.44746
▁ぜひぜひ	-9.44772
💘	-9.44778
かと	-9.44867
への	-9.4487
派	-9.44964
出す	-9.44986
行動	-9.45047
使う	-9.4506
▁5	-9.45074
▁今日もよろしくお願いします	-9.45142
線	-9.4516
▁̇)	-9.45262
15	-9.45331
してくれる	-9.45362
イラスト	-9.45392
痛い	-9.45407
身	-9.45452
星	-9.45515
▁ᴗ	-9.45529
▁̗̀	-9.4553
ペン	-9.45535
▁わ	-9.4554
なんとか	-9.45556
そんなに	-9.45615
ドキドキ	-9.45718
組	-9.45781
ことは	-9.45806
世界	-9.45882
つけ	-9.45936
🍺	-9.4595
しい	-9.45981
なった	-9.45999
学	-9.46058
たけど	-9.4608
👍✨	-9.46099
(^^)	-9.46127
んの	-9.46375
なければ	-9.46397
島	-9.46441
自分で	-9.46445
言葉	-9.46461
うん	-9.46537
羨ましい	-9.4663
確認	-9.46691
そのまま	-9.46733
僕	-9.46806
誕生日	-9.46922
練習	-9.46937
素晴らしい	-9.4699
ット	-9.47008
▁自分も	-9.47012
ポケモン	-9.47027
▁いつか	-9.47036
のも	-9.4707
クソ	-9.47087
予約	-9.47105
され	-9.47144
だー	-9.47183
(*ˊ	-9.47224
等	-9.47404
みたいです	-9.47455
▁明日は	-9.47542
天才	-9.47583
美味しそう	-9.47744
らない	-9.47793
わたし	-9.4792
料理	-9.47948
▁おー	-9.47965
ディ	-9.47993
▁もっと	-9.48016
年も	-9.48023
やろう	-9.48076
^_^	-9.48126
ますように	-9.48282
ちん	-9.48324
ヶ月	-9.48372
...😭	-9.48373
と同じ	-9.48389
忙しい	-9.4841
知ってる	-9.48428
でしょう	-9.48438
×	-9.48495
良いお年を	-9.48555
屋	-9.48581
よい	-9.48639
もし	-9.48772
送って	-9.48873
特に	-9.48901
来年	-9.48912
誰	-9.4898
時から	-9.48983
たくない	-9.49003
👋	-9.49036
たまに	-9.49088
ジャ	-9.49197
ずに	-9.49429
ィ	-9.49471
スペース	-9.4952
ラーメン	-9.49522
しゃん	-9.49555
🙂	-9.49565
誰か	-9.49568
近い	-9.49601
コラボ	-9.49613
💤	-9.49649
たよ	-9.49683
希望	-9.49684
∀	-9.49861
人生	-9.49959
ヌ	-9.49988
んや	-9.50079
通り	-9.50084
もある	-9.50107
▁ア	-9.50124
ヒ	-9.50289
つい	-9.50296
死	-9.50313
通	-9.50342
r	-9.50424
があって	-9.50625
😭✨	-9.50644
▁|	-9.5069
E	-9.50783
シー	-9.50831
I	-9.50834
かー	-9.50849
年越し	-9.5086
あげる	-9.50967
けどね	-9.51042
🫰	-9.51052
週間	-9.51128
見てる	-9.51188
なんです	-9.51295
結局	-9.51458
▁゙	-9.51475
上手く	-9.51576
やけど	-9.5169
切り	-9.51826
入って	-9.51835
以上	-9.51842
毛	-9.51848
)))	-9.51856
▁お仕事	-9.51861
〜〜〜	-9.51903
σ	-9.51936
つけて	-9.52003
書いて	-9.52033
どんどん	-9.52276
▁嬉しい	-9.52479
のために	-9.52537
期	-9.5263
ーン	-9.52666
会いたい	-9.52687
ますよね	-9.52757
作品	-9.52795
▁大	-9.52859
50	-9.5287
だと思います	-9.52878
たり	-9.53031
▁今から	-9.53066
▁ありがとー	-9.53097
爆笑	-9.53128
お願い	-9.53207
どうぞ	-9.53241
しんどい	-9.53269
もらった	-9.53292
呼んで	-9.53315
宜しくお願い致します	-9.53325
!!️!!️	-9.53377
振り	-9.53389
たの	-9.53393
良き	-9.53407
いろいろ	-9.53489
▁おつ	-9.53499
〜🥰	-9.5353
見たら	-9.53563
🧸	-9.5363
木	-9.5363
(`・	-9.53709
ゲ	-9.53796
駅	-9.53828
ing	-9.5386
びっくり	-9.53881
作り	-9.53915
大丈夫です	-9.53943
g	-9.54017
気をつけて	-9.54095
良く	-9.54144
んじゃ	-9.54265
まだまだ	-9.54274
先輩	-9.54296
毎回	-9.54354
▁Christmas	-9.54481
▁すごい	-9.54481
ねん	-9.54504
(&	-9.54508
というか	-9.54581
♬	-9.54629
なくなる	-9.54633
待ってます	-9.54744
原	-9.54789
リン	-9.54808
頑張りましょう	-9.54831
ざ	-9.54847
▁やった	-9.54853
暇	-9.54918
一番	-9.5497
したいです	-9.55077
ましょ	-9.55078
がいい	-9.55113
▁頑張って	-9.55199
▁&	-9.55285
お世話になりました	-9.5529
わからん	-9.55353
🥹✨	-9.55357
............	-9.5538
しろ	-9.55504
死ぬ	-9.55538
思い出	-9.55636
なくても	-9.55794
あたり	-9.55813
日を	-9.55826
文	-9.55837
▁◜	-9.55841
お迎え	-9.55841
涙	-9.55958
ひと	-9.55976
お酒	-9.55999
😡	-9.56106
大事	-9.56184
くださいね	-9.56271
不安	-9.56429
万円	-9.56455
イケメン	-9.56579
▁おお	-9.56586
勝ち	-9.56672
アニメ	-9.56741
関係	-9.56749
すぎた	-9.56762
別	-9.5685
したり	-9.56865
にする	-9.5688
以外	-9.56907
出た	-9.56995
🌞	-9.57006
💫	-9.57076
楽しみです	-9.57099
🍊	-9.57191
わけ	-9.572
期待	-9.57214
草	-9.57242
▁ホント	-9.57249
▁フォローありがとうございます	-9.57253
量	-9.57329
のみ	-9.57364
れない	-9.57364
活	-9.5738
確定	-9.57437
読み	-9.57496
安	-9.57596
側	-9.5768
民	-9.57702
映画	-9.57783
出し	-9.57786
指	-9.57809
楽しかったです	-9.57849
ワン	-9.58007
親	-9.58073
ホント	-9.58099
まって	-9.5811
全員	-9.5811
役	-9.5814
▁Twitter	-9.5818
待ってる	-9.5823
来年は	-9.58239
ベ	-9.58275
せん	-9.58279
仕事納め	-9.58281
💕💕💕	-9.58293
そういう	-9.58347
他の	-9.58373
パワー	-9.58431
l	-9.58583
ェ	-9.58601
と思った	-9.58614
作業	-9.58634
可愛くて	-9.58638
活動	-9.58725
▁本当	-9.58776
あったら	-9.58785
ないです	-9.58801
思う	-9.58821
すら	-9.58838
してるの	-9.58916
゚Д゚	-9.59096
がない	-9.59246
もちろん	-9.59308
さすが	-9.59372
近	-9.59434
やっぱ	-9.59482
嬉しかった	-9.5976
▁俺は	-9.5978
中に	-9.59793
っちゃう	-9.59808
かしら	-9.5981
いいよね	-9.59879
日本	-9.5993
経験	-9.60058
ガチャ	-9.601
はもう	-9.60122
🙃	-9.60159
ですからね	-9.6017
連絡	-9.60233
💨	-9.60313
🙋	-9.60362
髪	-9.60432
!!!!!!!	-9.60443
の時	-9.6061
様に	-9.60766
逆に	-9.60801
御	-9.6089
るん	-9.60891
犬	-9.60901
⸜(*	-9.6092
(;	-9.60929
の人	-9.60944
グッズ	-9.6095
無事	-9.61061
石	-9.61065
作った	-9.61073
ありがとー	-9.61137
へん	-9.61169
ヤバい	-9.61284
に行く	-9.61327
真	-9.61358
⛄️	-9.61412
▁きっと	-9.61451
込み	-9.61466
かけて	-9.61486
こんなに	-9.61587
失礼します	-9.61609
みちゃん	-9.61705
弱	-9.61726
落ち	-9.61777
ライ	-9.6181
倍	-9.61859
有	-9.61967
大好きです	-9.62078
花	-9.62102
言い	-9.62114
負け	-9.62221
▁DM	-9.62277
主	-9.62283
新しい	-9.62308
るか	-9.62322
流	-9.62329
デス	-9.62352
わー	-9.62371
????	-9.62404
はい	-9.6249
たぶん	-9.62564
▁(*	-9.62565
みさん	-9.62791
だったよ	-9.62826
しましょ	-9.62835
🍓	-9.62916
▁こちらこそよろしくお願いします	-9.62994
😫	-9.63039
▁the	-9.63083
꒱	-9.63091
·	-9.63105
セット	-9.6313
設定	-9.63221
文字	-9.6323
ても	-9.63231
観	-9.63247
だったけど	-9.63273
っっ	-9.63279
掃除	-9.63381
▁T	-9.63432
おもろい	-9.63466
🫢	-9.63471
を見て	-9.63703
▁ええ	-9.63722
玉	-9.63807
💐	-9.63822
▁朝	-9.63888
行き	-9.63892
カー	-9.63894
▁いやいや	-9.6393
あげて	-9.63962
あげ	-9.64083
わぁ	-9.64093
〜😊	-9.64138
上げ	-9.64149
▁to	-9.64232
꒰	-9.64255
V	-9.64351
想像	-9.64382
早	-9.64393
色んな	-9.64399
頑張れ	-9.644
起きて	-9.64463
ぷ	-9.64465
▁たしかに	-9.64501
オタク	-9.64566
▁今日の	-9.64574
帰る	-9.64617
そろそろ	-9.64646
▁よし	-9.64693
悲しい	-9.64735
馬	-9.64747
体調	-9.64766
仲良く	-9.64766
h	-9.64813
▁次は	-9.64814
生きて	-9.64935
▁わぁ	-9.65027
▁ほ	-9.65033
嫌い	-9.65143
全て	-9.65175
正月	-9.65177
だぁ	-9.65292
寂しい	-9.65323
奴	-9.65326
re	-9.65341
▁ゆ	-9.65358
おはあり	-9.65419
平	-9.65505
行こう	-9.65549
▁毎日	-9.65553
タイミング	-9.65569
▁僕は	-9.6565
▁うちも	-9.65678
持ってる	-9.65686
強	-9.65755
余裕	-9.65796
でーす	-9.65811
▁同じ	-9.6589
勢	-9.65921
わたしも	-9.65946
▁マジで	-9.65971
▁来年	-9.65981
じゃないですか	-9.66214
x	-9.66243
それで	-9.66262
マイ	-9.6637
来年もよろしくお願いします	-9.66385
デート	-9.66422
だと思う	-9.66451
あー	-9.66531
になり	-9.66537
だけでも	-9.6658
そうですね	-9.66583
あけましておめでとう	-9.66709
内容	-9.66745
るけど	-9.66766
待って	-9.6677
▁_	-9.66933
▁あい	-9.66991
わからない	-9.67039
まり	-9.67046
▁いっぱい	-9.67123
▁わたし	-9.67158
だけは	-9.67167
いま	-9.67274
よかったです	-9.67306
みんなで	-9.67377
')	-9.67378
俺も	-9.67436
▁ごめん	-9.67441
対応	-9.67445
仲良くしてください	-9.67529
▁10	-9.67546
▁̄)	-9.67569
母	-9.67577
仲良くして	-9.67589
😆💕	-9.67629
▁今は	-9.67641
ター	-9.67688
と思ってる	-9.67704
姿	-9.67776
って言って	-9.67827
ませんでした	-9.67853
Σ	-9.67892
̀ᄇ	-9.67956
たかった	-9.67958
ります	-9.68073
購入	-9.68087
///	-9.68095
合	-9.6814
れて	-9.68157
年末年始	-9.68176
仕方ない	-9.68434
一生	-9.68471
☕️	-9.68497
ろう	-9.68508
〜!!!	-9.68528
やめて	-9.68533
頑張ってください	-9.68553
おる	-9.68561
今年もよろしくね	-9.68561
▁り	-9.68563
さらに	-9.68608
ょ	-9.68623
▁新年	-9.6867
あれば	-9.68707
ないように	-9.68735
くなる	-9.68751
サンタさん	-9.68807
▁たくさん	-9.6883
たので	-9.68945
飲む	-9.68967
疲れ	-9.68999
笑い	-9.69147
挨拶	-9.69191
入る	-9.69221
家族	-9.69292
火	-9.69363
いいなぁ	-9.69374
沼	-9.69474
部屋	-9.69537
👊	-9.69624
遊び	-9.69628
▁うちの	-9.69709
▁̆ω	-9.69713
乗り	-9.69726
〜☺️	-9.69739
友達	-9.69753
アン	-9.69763
先に	-9.69804
安心	-9.69877
投稿	-9.69882
自	-9.6992
遊んで	-9.69958
アイコン	-9.69965
学校	-9.69974
ポイント	-9.70028
ŧ	-9.70047
🌷	-9.70057
命	-9.7016
みん	-9.70167
すれば	-9.7022
達	-9.70223
だろう	-9.7037
▁もし	-9.70398
パー	-9.70398
なかったら	-9.7041
ガチ	-9.70547
しています	-9.70549
◎	-9.70576
▁@	-9.70716
報告	-9.70756
家に	-9.70778
られない	-9.70849
だいぶ	-9.70873
カフェ	-9.70929
氏	-9.70957
11	-9.70965
😙	-9.71021
⸝⸝	-9.71029
プロ	-9.71184
のんびり	-9.71229
😥	-9.71234
必要	-9.71333
時間が	-9.71357
法	-9.714
相手	-9.71481
^)/	-9.71487
▁)⸝	-9.71492
呼び	-9.71507
ォ	-9.7151
ジュ	-9.71594
のだ	-9.71609
なんでも	-9.7165
ただ	-9.7165
目が	-9.71688
はまだ	-9.71697
妄想	-9.71778
🍜	-9.71798
▁ずっと	-9.71891
▁私が	-9.71937
うちに	-9.71949
:(	-9.7208
女性	-9.72179
残	-9.72265
▁今年もよろしく	-9.72316
しまって	-9.72318
もらう	-9.72333
るので	-9.72377
記憶	-9.72383
いいな	-9.72389
🥺🥺🥺	-9.72389
▁ゆっくり	-9.72538
血	-9.72569
絡んで	-9.72586
そー	-9.72703
チーム	-9.72708
るのは	-9.72715
青	-9.72756
形	-9.72838
マジ	-9.72849
アレ	-9.7287
しますね	-9.72894
ことに	-9.72915
!!(	-9.72926
他	-9.72946
みたいで	-9.7296
子供	-9.73013
▁お大事に	-9.73026
😮‍💨	-9.73113
我慢	-9.73115
おい	-9.7312
うち	-9.73141
箱	-9.73178
だいすき	-9.73207
メリークリスマス	-9.73239
ハイ	-9.73294
程	-9.7333
🫧	-9.73364
かなー	-9.73377
たち	-9.73412
о	-9.73421
分からない	-9.7343
楽しそう	-9.73491
書き	-9.73502
即	-9.73594
眠	-9.73599
えらい	-9.73653
してるから	-9.73667
元気に	-9.73785
やめ	-9.73789
前の	-9.73829
ペ	-9.73855
撮影	-9.7386
▁やったー	-9.73888
▁·̫	-9.73961
動	-9.73987
😑	-9.74018
スマホ	-9.74042
😵	-9.74048
スタート	-9.74065
꒪	-9.74122
〜😭	-9.74126
が好き	-9.74132
;∀	-9.74176
訳	-9.74292
年になりますように	-9.74364
ゆう	-9.74388
だからね	-9.74396
朝から	-9.74414
大人	-9.74429
観て	-9.74451
ロー	-9.74471
しようね	-9.74475
割	-9.74523
あん	-9.74542
偉い	-9.74565
漫画	-9.74578
😩	-9.74598
18	-9.74643
しまいました	-9.7465
飯	-9.74669
太	-9.74724
フル	-9.74747
🥰🥰🥰	-9.74796
▁ここ	-9.74871
納め	-9.74889
っけ	-9.74944
聞く	-9.74998
と一緒に	-9.75006
とかで	-9.75014
するから	-9.75114
ために	-9.75118
それが	-9.75157
ないの	-9.75162
意味	-9.75201
画像	-9.75384
フレ	-9.75409
J	-9.75417
♫	-9.75525
お祝い	-9.75537
▁т	-9.75578
凄く	-9.75578
▁おけ	-9.75649
取って	-9.7565
👍️	-9.75656
〜😆	-9.75689
冬	-9.7572
ないし	-9.75749
おいで	-9.75782
書	-9.75796
まして	-9.7581
状態	-9.75813
激	-9.75883
電話	-9.75913
🤦‍♀️	-9.75915
おすすめ	-9.75978
っこ	-9.76047
けん	-9.76253
俺は	-9.7628
クリ	-9.76296
😨	-9.76349
なのだ	-9.76395
覚えて	-9.7641
～～	-9.76568
▁やっと	-9.76579
ゼ	-9.76606
せる	-9.76676
必ず	-9.76703
🥺✨	-9.76713
スタ	-9.76757
がんばる	-9.76791
楽しみにしてる	-9.76816
女の子	-9.76872
会う	-9.76882
お店	-9.77014
もいい	-9.77021
餅	-9.77024
える	-9.77035
......(	-9.77093
いこ	-9.77128
彼女	-9.77152
▁̆)	-9.77164
座	-9.772
▁)/	-9.77217
Z	-9.77244
多	-9.77254
のお	-9.77258
終わって	-9.77291
Merry	-9.7738
待ち	-9.77416
雰囲気	-9.77439
とかも	-9.77442
▁うわ	-9.77487
▁だよね	-9.77496
してたら	-9.77556
⛩	-9.7756
`*	-9.77601
焼き	-9.77705
f	-9.77738
😵‍💫	-9.778
まん	-9.77887
アリ	-9.77956
▁ひ	-9.7799
旅行	-9.77997
敵	-9.78018
新年	-9.78179
もう少し	-9.78205
合い	-9.78216
腕	-9.78226
県	-9.78273
ご挨拶	-9.783
切	-9.78333
すぐに	-9.78346
質	-9.7841
瞬間	-9.78411
しかも	-9.78438
春	-9.78451
ゾ	-9.78455
がち	-9.78553
▁ご	-9.78571
自分も	-9.78575
おじさん	-9.78806
産	-9.78833
思った	-9.78867
しね	-9.7905
▁2022	-9.7906
のように	-9.79067
聴いて	-9.79103
一日	-9.7918
追加	-9.7919
なのかな	-9.79204
ほとんど	-9.79218
素	-9.79226
▁僕	-9.79273
効果	-9.79278
病院	-9.79329
ri	-9.79378
俺の	-9.79459
💢	-9.79522
お腹	-9.79523
たま	-9.79599
れた	-9.79612
実	-9.7968
(●	-9.79683
ですもんね	-9.79848
立ち	-9.79859
自分に	-9.79874
▁ふ	-9.79907
一年	-9.79961
夏	-9.79968
▁いま	-9.79992
▁『	-9.8003
▁自分の	-9.80037
回目	-9.80078
後に	-9.80094
まあ	-9.80122
始めた	-9.80163
打ち	-9.80206
同	-9.80241
▁そうですね	-9.8027
▁雪	-9.80284
🏻	-9.80287
正	-9.80292
▁॑	-9.8033
上手	-9.80349
サイズ	-9.80368
🎉🎉🎉	-9.80413
って言う	-9.80462
雨	-9.80463
🐾	-9.80471
こい	-9.80507
上手い	-9.80518
▁FF	-9.80557
マス	-9.80601
🐯	-9.80658
してね	-9.80717
お前	-9.80747
(∩	-9.8076
ばっかり	-9.8078
つつ	-9.80845
王	-9.8086
er	-9.80929
テンション	-9.80934
さっき	-9.8098
ましたね	-9.81054
飛び	-9.81055
ってなる	-9.81084
▁ゆう	-9.81098
なに	-9.811
つか	-9.81181
▁お誕生日おめでとうございます	-9.81181
こん	-9.81182
バン	-9.81183
込んで	-9.81211
について	-9.81231
と思ってます	-9.81244
付き	-9.81249
🤪	-9.81267
出勤	-9.81308
行こ	-9.81315
食い	-9.81364
▁こちら	-9.81376
2022	-9.81382
会社	-9.81412
🌹	-9.81471
めちゃめちゃ	-9.81493
メン	-9.81526
変	-9.81526
機	-9.81528
これで	-9.81534
▁よろしく	-9.81592
)」	-9.81611
頑張った	-9.81621
限定	-9.81634
☺️💕	-9.81677
ですわ	-9.81767
変な	-9.81839
んさん	-9.8187
▁B	-9.81935
ゥ	-9.81948
過ぎる	-9.82053
再	-9.82074
🎍✨	-9.82078
▁なに	-9.8209
大きい	-9.82093
皆	-9.82198
そこ	-9.82221
動き	-9.8225
和	-9.82537
タイ	-9.82553
なくなった	-9.82555
しょ	-9.8258
ではなく	-9.82634
▁おぉ	-9.8269
⸜(	-9.82694
欲しいです	-9.82704
腹	-9.82709
▁これで	-9.82713
させていただきます	-9.82719
恋	-9.82756
ハッ	-9.82839
あああ	-9.82839
可愛かった	-9.82879
歩	-9.82896
😴	-9.82903
▁꒳	-9.82932
ときは	-9.82951
☃️	-9.82959
ツアー	-9.82962
目標	-9.83039
ロン	-9.83088
今の	-9.8317
さんおは	-9.83184
ニー	-9.83232
調子	-9.83252
24	-9.83276
てた	-9.83305
過ぎ	-9.83344
褒めて	-9.83459
▁夜	-9.83481
タイム	-9.83515
教えてください	-9.83556
お大事に	-9.83591
アカウント	-9.83618
返信	-9.83634
それを	-9.83656
▁リプ	-9.8366
みます	-9.83665
よりも	-9.83788
断	-9.83911
衣装	-9.83923
時の	-9.84007
最高の	-9.8405
んやけど	-9.84058
~~~	-9.841
回復	-9.84116
❤️❤️	-9.84135
in	-9.84166
いきましょう	-9.84169
ᄇ	-9.84184
種	-9.84189
まい	-9.84222
環境	-9.84305
しなきゃ	-9.84321
ファ	-9.84349
改めて	-9.84398
残り	-9.84496
忘れ	-9.84523
ラスト	-9.84546
なのね	-9.84576
バカ	-9.84586
夫	-9.84588
と思ったら	-9.8459
なお	-9.84594
▁皆さん	-9.84634
来ない	-9.84716
するね	-9.84822
言った	-9.84935
😸	-9.84937
違い	-9.84946
人気	-9.84951
25	-9.85025
オン	-9.8505
クラ	-9.85058
40	-9.85071
😔	-9.85094
少ない	-9.851
まーす	-9.85102
コレ	-9.85179
🌼	-9.85181
屋さん	-9.85184
無事に	-9.85214
生き	-9.85223
んだから	-9.85233
▁配信	-9.85355
努力	-9.85356
うちの	-9.85373
繋がって	-9.85392
よろ	-9.8541
やってた	-9.85431
ありがたい	-9.85432
X	-9.85448
現場	-9.85472
女子	-9.85569
転	-9.8557
▁́Д	-9.85628
🤟	-9.85636
運転	-9.85727
🥹🥹🥹	-9.85768
チョコ	-9.85856
残念	-9.85884
受け	-9.85891
鬼	-9.85968
笑顔	-9.85997
参戦	-9.86034
いった	-9.86062
しゅ	-9.86171
ว	-9.86191
出来た	-9.86216
事が	-9.86288
ときに	-9.86306
したけど	-9.86329
▁了解です	-9.86332
になったら	-9.86351
▁今年も宜しくお願いします	-9.86352
解	-9.86362
🥹💕	-9.86375
行けない	-9.86388
🐥	-9.86426
やし	-9.86461
満足	-9.86489
自信	-9.86511
押し	-9.86516
😊💕	-9.86537
画面	-9.86602
▁よく	-9.86623
出来て	-9.86688
▁年末	-9.86726
良	-9.86744
になりそう	-9.86783
前から	-9.86788
合う	-9.86828
▁さ	-9.86844
笑った	-9.86856
やねん	-9.86907
になっちゃう	-9.86921
▁いいね	-9.86949
▁お迎えありがとうございます	-9.86952
😰	-9.86995
あっ	-9.86996
感動	-9.87047
🌱	-9.87177
モン	-9.87274
タン	-9.87283
アル	-9.87321
いいの	-9.87372
んだろ	-9.87448
の事	-9.87493
▁ありがとうございました	-9.87511
くない	-9.87556
ゆー	-9.8763
急に	-9.8763
未来	-9.8766
...🥺	-9.87666
イブ	-9.87669
肩	-9.877
on	-9.87714
逆	-9.8772
あるの	-9.87806
ドラマ	-9.8784
まず	-9.87841
なんですか	-9.87842
とう	-9.87845
お話し	-9.87876
頑張ろう	-9.87978
▁自分	-9.88057
キー	-9.88078
いるので	-9.88079
シーン	-9.88089
苦手	-9.88091
耳	-9.88092
最後	-9.88145
カレー	-9.88212
サー	-9.88237
事を	-9.8831
理解	-9.88346
だなぁ	-9.88349
注意	-9.88455
っちゃ	-9.88533
▁まだまだ	-9.88534
...............	-9.88541
手を	-9.88551
▁おい	-9.88562
タメで	-9.88576
よん	-9.88622
ro	-9.88632
出てくる	-9.88639
っちゃった	-9.88659
ませ	-9.88662
ナイ	-9.88685
カン	-9.88803
𓂃	-9.88987
が一番	-9.88992
そうなの	-9.89071
たく	-9.89072
んな	-9.89116
おく	-9.89164
みたら	-9.89184
皆さん	-9.89187
やります	-9.89196
づ	-9.8923
くんが	-9.89271
🤫	-9.89292
魔	-9.89567
オススメ	-9.89585
鳥	-9.8963
そこまで	-9.89701
行きましょう	-9.89717
子さん	-9.8972
状況	-9.89806
でしたか	-9.89838
業	-9.89853
と言う	-9.89874
日目	-9.89884
僕も	-9.8989
わかります	-9.89908
意識	-9.89933
よねー	-9.89972
好み	-9.89986
なさい	-9.89992
結婚	-9.89995
置いて	-9.9003
半分	-9.90047
おう	-9.90087
会って	-9.9009
紙	-9.9013
z	-9.90133
ー́	-9.90148
距離	-9.90197
🍑	-9.90203
が多い	-9.90311
▁自分は	-9.90333
感想	-9.90452
深	-9.90452
💡	-9.9052
🙌✨	-9.9058
逃げ	-9.90604
☝️	-9.9062
にて	-9.90641
大会	-9.90697
次第	-9.90718
▁同じく	-9.90733
、、、、	-9.90821
センス	-9.90845
首	-9.90852
フォロワー	-9.9087
覚え	-9.9087
シュ	-9.909
ストレス	-9.90936
▁結構	-9.90941
喜んで	-9.9107
❔	-9.91087
マスク	-9.9109
名古屋	-9.911
▁́▽`)	-9.91125
謎	-9.9116
の写真	-9.91162
してくる	-9.91249
リスト	-9.91264
よろしくです	-9.91328
ちゃって	-9.9134
いけ	-9.91375
娘	-9.91393
見せ	-9.91393
明	-9.9152
おかしい	-9.91528
言ってる	-9.91541
▁来年もよろしく	-9.91664
小さい	-9.91689
😿	-9.91698
らぶ	-9.91792
!!!!!!!!!!!!!!!!	-9.92027
見える	-9.92082
なさそう	-9.92084
時期	-9.92109
ぶり	-9.92118
▁そー	-9.92128
凸	-9.92139
ブロック	-9.92203
だもんね	-9.92207
▁フォロー	-9.92218
たのに	-9.92229
次は	-9.92275
泣く	-9.92292
更に	-9.92307
って思う	-9.92398
連れて	-9.92429
嬉しかったです	-9.92433
頃	-9.92448
▁そうなんですね	-9.92474
成長	-9.92494
どー	-9.92513
優勝	-9.92551
鼻	-9.92552
率	-9.92601
大丈夫ですか	-9.92705
村	-9.92757
恥ずかしい	-9.92759
プレイ	-9.92776
▁ナイス	-9.92824
✌	-9.92873
ゲット	-9.92902
したよ	-9.92908
お年玉	-9.92928
てます	-9.92948
変わる	-9.92958
の中で	-9.92964
ra	-9.93013
アプリ	-9.93029
▁うちは	-9.93059
‹	-9.9309
▁たぶん	-9.93118
マー	-9.93131
【	-9.93139
やす	-9.93163
最高です	-9.93188
鍋	-9.93198
日々	-9.93217
▁次	-9.93248
現実	-9.9326
YouTube	-9.93313
バス	-9.93316
募集	-9.93343
すること	-9.93423
ック	-9.93436
かわ	-9.93485
半	-9.93576
傷	-9.93633
殺	-9.93655
!!!!!!!!	-9.93667
姉	-9.93675
終了	-9.93676
▁全部	-9.93699
よねぇ	-9.93718
っちゃん	-9.93739
▁なんと	-9.93746
当たる	-9.93746
〜💕	-9.93802
すぎます	-9.93814
バレ	-9.93836
ちゃんおはよ	-9.93856
ドン	-9.93875
ステ	-9.93904
なるほど	-9.93914
、「	-9.93916
飛んで	-9.93921
日間	-9.93926
着て	-9.93928
しばらく	-9.93984
スター	-9.9401
スペ	-9.94037
見れる	-9.94147
▁̄▽	-9.94179
幸せな	-9.9419
と思うけど	-9.94192
うまい	-9.94201
員	-9.94271
イイ	-9.9429
▁よろしくね	-9.94294
終わったら	-9.94359
▁まじか	-9.9442
リアル	-9.94422
今まで	-9.94468
するか	-9.94551
▁普通に	-9.94564
最	-9.94583
版	-9.94627
▁めちゃ	-9.94677
▁߹	-9.94679
ぞー	-9.94686
式	-9.94764
遠い	-9.94774
りました	-9.94794
爆	-9.94811
・・	-9.94812
試合	-9.94822
出来	-9.94929
できたら	-9.94956
▁朝から	-9.94974
羽	-9.94987
ーっ	-9.9502
🐈	-9.95026
ランク	-9.95048
ファイト	-9.95055
相談	-9.95083
語	-9.95088
連休	-9.95125
はない	-9.95146
身体	-9.95148
しま	-9.9515
病	-9.95197
いろんな	-9.95212
してきた	-9.95239
1000	-9.95324
▁おはありです	-9.95429
癖	-9.95488
割と	-9.95519
続けて	-9.95538
早めに	-9.95641
言	-9.95729
周り	-9.95798
昼	-9.95821
したの	-9.95833
▁今日から	-9.9584
mi	-9.9585
葉	-9.95925
むり	-9.95975
期間	-9.95985
字	-9.95986
僕は	-9.96011
発表	-9.96081
あんま	-9.96086
クリア	-9.96154
当選	-9.96156
宮	-9.96258
ぽん	-9.96259
けれど	-9.96264
しております	-9.96277
▁やはり	-9.96287
▁̮̈	-9.96296
日は	-9.96334
昔	-9.96499
500	-9.96502
リング	-9.96541
▁なかなか	-9.96581
お菓子	-9.96607
💪🏻	-9.96641
させる	-9.96686
定	-9.96693
▁̊	-9.96696
完全に	-9.96704
リア	-9.9675
22	-9.96752
🥰✨	-9.96776
🎄✨	-9.96785
知	-9.96821
治	-9.96833
▁さっき	-9.96875
ᄆ	-9.96896
▁き	-9.96912
(❁	-9.96924
に行って	-9.9697
風邪	-9.97018
急	-9.9702
があります	-9.97046
ーーーーー	-9.97102
▁結局	-9.97123
ピン	-9.972
さい	-9.97201
横	-9.97232
までは	-9.97246
▁6	-9.97261
ひとつ	-9.97263
目に	-9.97313
ガン	-9.97342
\(^	-9.97367
🥂	-9.97374
でいい	-9.97382
居る	-9.97391
ありません	-9.97403
おれ	-9.97405
ニャ	-9.97416
アイ	-9.97431
14	-9.97432
〜♪	-9.97487
▁あり	-9.97606
気がします	-9.97743
大晦日	-9.97745
ˋ)	-9.9779
一人	-9.97794
⌒	-9.97799
こちら	-9.97844
❄	-9.9785
🐹	-9.97879
なかったから	-9.97967
いいですよね	-9.98019
...🤔	-9.98033
エル	-9.98035
わかって	-9.98061
してくれ	-9.98123
ちゃんおはよう	-9.98147
✌🏻	-9.98155
▁́∀`	-9.98156
失礼	-9.98163
ᴖ	-9.98164
チラッ	-9.98194
なのです	-9.9821
▁まさか	-9.98211
フィ	-9.98224
やったら	-9.98258
🍰	-9.9826
移動	-9.98276
くんも	-9.98283
全力で	-9.98299
裏	-9.98317
▁'-'	-9.9832
おつ	-9.98351
聞いた	-9.98356
るし	-9.98442
のおかげで	-9.98474
今回は	-9.98584
良いですね	-9.98594
🥲🥲	-9.98624
▁12	-9.98633
('	-9.9867
ˋ	-9.98688
があれば	-9.987
毎年	-9.98746
人と	-9.98804
▁̇*)	-9.98812
ミス	-9.98813
寝た	-9.98863
▁あとは	-9.98906
プリ	-9.9893
なのよ	-9.98946
出ない	-9.98959
たいです	-9.98973
▁M	-9.99023
こっち	-9.99029
ラブ	-9.99034
頑張ってね	-9.9905
ショ	-9.99056
時代	-9.99081
笑って	-9.99111
遅い	-9.99117
パパ	-9.99131
説	-9.99224
してくれて	-9.99227
のある	-9.99235
立	-9.99302
֊	-9.99414
でき	-9.99508
ゎ	-9.99526
復活	-9.99578
体力	-9.9958
正解	-9.99583
an	-9.99602
気に	-9.99613
久しぶりに	-9.99614
かよ	-9.99629
短	-9.9976
嘘	-9.99777
▁•	-9.99804
いただいて	-9.99834
✨🙏	-9.99851
ぺ	-9.99856
▁おっ	-9.99862
聞き	-9.99879
▁そろそろ	-9.99912
▁初	-9.99951
探して	-10.0004
も良い	-10.0005
ばっか	-10.001
メイン	-10.0031
ゴミ	-10.0032
痛	-10.0034
どの	-10.0036
▁D	-10.0038
申し訳ございません	-10.004
撮って	-10.0044
投げ	-10.0045
ってなった	-10.0046
って思って	-10.0051
課金	-10.0056
💎	-10.0057
下さいね	-10.006
大好きな	-10.0061
ゝ	-10.0061
わよ	-10.0063
見せて	-10.0065
追い	-10.0073
🍀*	-10.0074
申し訳ない	-10.0075
なくなって	-10.0081
起き	-10.0094
泣き	-10.0098
ストーリー	-10.0103
まさか	-10.0104
FF	-10.0106
次の	-10.0107
魚	-10.0109
~!	-10.0117
でございます	-10.0131
でしたが	-10.0131
甘	-10.0133
かん	-10.0133
続き	-10.0135
普通	-10.0145
近く	-10.0147
フォロワーさん	-10.0148
息	-10.0149
お願い致します	-10.0158
答え	-10.0158
▁7	-10.016
SS	-10.0168
安い	-10.0168
検査	-10.017
▁明日から	-10.017
させて頂きます	-10.0173
🎅🏻	-10.0176
うどん	-10.0176
茶	-10.0178
ああ	-10.0183
ホテル	-10.0193
ドラ	-10.0194
家で	-10.0196
使ってる	-10.0201
明日から	-10.0201
今日の	-10.0203
ますか	-10.0213
得	-10.0219
▁楽しみ	-10.0228
▁了解	-10.023
間に	-10.0239
遠	-10.0241
じゅ	-10.0242
好	-10.0251
世	-10.0253
▁どんな	-10.0256
ジン	-10.0261
くんと	-10.0262
キラキラ	-10.0264
んちゃん	-10.0276
になると	-10.0276
200	-10.0277
南	-10.0277
弱い	-10.0291
チェキ	-10.0293
フェス	-10.0296
できます	-10.0296
させ	-10.0298
テレビ	-10.0299
アイドル	-10.0299
欲しかった	-10.0299
▁C	-10.0302
▁誰か	-10.0306
見え	-10.0306
コス	-10.0306
もらえる	-10.0309
懐かしい	-10.0309
▁名前	-10.0309
米	-10.0313
吉	-10.0315
存在	-10.0316
更新	-10.0316
自分を	-10.0318
初めまして	-10.0319
さえ	-10.0322
当たり	-10.0324
優しく	-10.0328
対	-10.033
方は	-10.0331
始めて	-10.0336
いるの	-10.0339
いきたい	-10.0341
🐻	-10.0341
ko	-10.0342
会話	-10.0348
のね	-10.0351
描く	-10.0358
かかる	-10.036
▁一	-10.0362
だったね	-10.0371
▁小	-10.0373
音楽	-10.0374
機会	-10.0377
ないで	-10.0382
返	-10.0383
通知	-10.0385
見てた	-10.0385
ことも	-10.0389
西	-10.0403
袋	-10.0403
レア	-10.0403
描き	-10.0412
友	-10.0412
明日は	-10.0418
穴	-10.0419
年間	-10.0419
!!️!!️!!️	-10.0421
東	-10.0424
無かった	-10.0433
メリクリ	-10.0436
いたい	-10.0437
▁明日も	-10.0437
ならない	-10.0445
▁さすがに	-10.0447
年に	-10.0449
市	-10.0453
塩	-10.0455
仲良し	-10.0457
って思った	-10.0462
五	-10.0462
帰り	-10.0464
大掃除	-10.0465
カメラ	-10.0467
気をつけてね	-10.0468
😭💕	-10.0472
to	-10.0473
泣	-10.0477
選手	-10.0478
じゃなかった	-10.0486
お風呂	-10.0495
そうで	-10.0498
安定	-10.0498
(。・	-10.0505
の子	-10.0506
入れる	-10.0507
予想	-10.0508
絶対に	-10.0509
旅	-10.0528
▁̇-	-10.0528
土	-10.0529
表	-10.0529
ෆ	-10.0532
知って	-10.0534
最後の	-10.0536
だったの	-10.0538
無し	-10.0538
話す	-10.0542
貰って	-10.0543
良ければ	-10.055
メンタル	-10.0556
▁いいよ	-10.0557
入ってる	-10.0565
少	-10.0566
😻	-10.0568
お友達	-10.0569
エン	-10.0572
🕊	-10.0575
23	-10.0576
わん	-10.0578
▁̆`*)	-10.0582
👏👏👏	-10.0588
▁॑c	-10.0594
💓💓	-10.0599
年は	-10.06
ベル	-10.0601
߹	-10.0601
天使	-10.0602
💗💗	-10.0603
🦊	-10.061
ぱん	-10.061
ブラ	-10.0611
︎💕︎︎	-10.0611
チャレンジ	-10.0613
ユ	-10.0613
趣味	-10.0613
あとは	-10.0614
ナイス	-10.0617
カッコいい	-10.0618
🥰💕	-10.0619
週	-10.062
終わる	-10.0631
行ったら	-10.0632
説明	-10.0632
るのが	-10.0636
自由	-10.0636
▁́&	-10.0638
🫰🏻	-10.0639
▁逆に	-10.064
😗	-10.0641
▁お前	-10.0641
🐟	-10.0647
びっくりした	-10.0647
▁コロナ	-10.0653
トレ	-10.0653
方法	-10.0657
カラオケ	-10.0659
圧	-10.0662
❤️❤️❤️	-10.0666
利	-10.0671
ないのに	-10.0672
そっち	-10.0673
19	-10.0674
すご	-10.0677
▁仕事納め	-10.0685
あるよ	-10.0687
したから	-10.0689
ール	-10.069
おいしい	-10.0696
理	-10.0697
トリ	-10.0699
りちゃん	-10.07
要	-10.0701
ること	-10.0702
年齢	-10.0703
̀֊	-10.0703
してほしい	-10.0712
意外と	-10.0713
一気に	-10.0715
保	-10.0722
▁では	-10.0726
上げて	-10.0727
21	-10.0729
ころ	-10.0734
т	-10.0737
手が	-10.0737
印象	-10.0739
▁俺の	-10.074
彼	-10.0741
もしかして	-10.0744
下手	-10.0745
寝落ち	-10.0749
るわ	-10.0753
ヤツ	-10.0757
俺が	-10.0757
しぬ	-10.0761
▁新	-10.0763
ぶっ	-10.0764
渡	-10.0764
▁ただいま	-10.0766
〜😂	-10.077
知らん	-10.0772
▁えぇ	-10.0773
波	-10.0773
🤭💕	-10.0779
勝	-10.0781
右	-10.0782
ありそう	-10.0783
だめ	-10.0785
ゲー	-10.079
遊ぶ	-10.0792
まし	-10.0793
応募	-10.0798
チェック	-10.0799
入った	-10.0801
無く	-10.0802
▁まさかの	-10.0806
al	-10.0808
兄	-10.081
買い物	-10.081
ゼロ	-10.0811
人も	-10.0812
推し活	-10.0812
?¦	-10.0814
一回	-10.0819
お茶	-10.0823
お取引	-10.0824
くんは	-10.0824
探し	-10.0825
始め	-10.0826
やはり	-10.0829
▁ち	-10.083
チン	-10.0831
おやすみなさい	-10.0834
送る	-10.0835
行け	-10.0835
😭😭😭😭	-10.0835
ノシ	-10.0844
ちゃいました	-10.0853
ありました	-10.0856
さすがに	-10.0866
するよ	-10.0867
🥱	-10.0867
十分	-10.0871
何を	-10.0872
ぁぁぁ	-10.0874
ノ゙	-10.0876
にくい	-10.089
ニヤニヤ	-10.0896
ですし	-10.0897
といいね	-10.09
既に	-10.0901
一言	-10.0902
くそ	-10.0903
ヘ	-10.0905
ッッ	-10.0907
もち	-10.0908
一応	-10.0909
イベ	-10.0916
合わせ	-10.092
公演	-10.0922
妻	-10.0923
差	-10.0923
ᄉ	-10.0923
TL	-10.0924
納得	-10.0924
させてください	-10.093
ˆ	-10.093
素敵です	-10.0935
▁おつかれ	-10.0935
ましたが	-10.0936
最高に	-10.0938
📣	-10.094
にならない	-10.0942
しそう	-10.0946
カラー	-10.0947
感覚	-10.0949
とる	-10.0953
抜け	-10.0953
頂いて	-10.0954
家の	-10.0959
誰も	-10.0959
眠い	-10.096
なんだよ	-10.0967
トイレ	-10.0969
だらけ	-10.097
大きな	-10.0971
▁8	-10.0972
いただき	-10.0973
▁いつでも	-10.0974
上がる	-10.0976
来年もよろしくね	-10.0978
むしろ	-10.0979
地獄	-10.0987
▁つ	-10.0987
気づいて	-10.0989
∩	-10.0991
いこう	-10.0991
待機	-10.1
別の	-10.1001
▁良いお年をお迎えください	-10.1001
▁あけおめです	-10.1002
ラー	-10.1005
汗	-10.1005
のような	-10.1005
▁お正月	-10.1006
キャ	-10.1009
▁楽しい	-10.101
カラ	-10.1014
q	-10.1019
っすね	-10.1024
胸	-10.1025
かもです	-10.1029
スタイル	-10.1031
心が	-10.1031
忘れた	-10.1039
教	-10.104
どっち	-10.1041
おー	-10.1043
16	-10.1049
頑張ろ	-10.1052
進	-10.1057
︎💕︎	-10.1058
アホ	-10.106
ハン	-10.1064
年明け	-10.1066
がんばります	-10.1069
技	-10.1073
るさん	-10.1077
なんですけど	-10.1079
父	-10.1079
モノ	-10.1081
くら	-10.1081
困る	-10.1081
▁それが	-10.1082
ますが	-10.1083
秒	-10.1084
▁す	-10.1085
▁何か	-10.1086
▁色々	-10.109
スーパー	-10.1092
もらえて	-10.1092
ꉂꉂ	-10.1092
生まれ	-10.1092
▁そういえば	-10.1097
かもしれません	-10.1099
▁K	-10.1101
カル	-10.1104
られ	-10.1106
放	-10.1106
▁🤣🤣🤣	-10.1113
事故	-10.1114
なんよ	-10.1121
▁リプありがとう	-10.1127
ですから	-10.1129
▁大阪	-10.113
🐼	-10.1132
縁	-10.1134
▁だって	-10.1138
▁LINE	-10.1139
質問	-10.114
結	-10.1141
話し	-10.115
ソロ	-10.1151
松	-10.1151
姫	-10.1157
達成	-10.1157
案件	-10.1158
くなって	-10.1158
▁三	-10.1159
▁やばい	-10.1167
▁20	-10.1167
八	-10.1172
▁今年の	-10.1172
美しい	-10.1174
いただきありがとうございます	-10.1175
▁あぁ	-10.1177
くなった	-10.1182
😆👍	-10.1182
分かります	-10.1183
四	-10.1183
頑張ってる	-10.1183
▁本日も	-10.1184
切って	-10.1186
によって	-10.1187
▁オ	-10.119
ことよろ	-10.1191
▁New	-10.1191
担	-10.1195
うまく	-10.1197
妹	-10.1198
拡散	-10.1207
失	-10.1208
(・∀・)	-10.1216
何でも	-10.1217
放送	-10.1224
ことない	-10.1224
は何	-10.1224
寝てる	-10.1224
ガー	-10.1225
〜🤣	-10.1225
ta	-10.1228
\	-10.1231
がんばって	-10.1233
彼氏	-10.1234
ホントに	-10.1234
ところで	-10.1236
クロ	-10.1238
▁いつ	-10.124
卒業	-10.1241
わかんない	-10.1245
と言って	-10.1245
限り	-10.1245
▁)♡	-10.1246
笑う	-10.1248
出てる	-10.1266
上がって	-10.1268
極	-10.1272
感謝です	-10.128
嫁	-10.1285
部分	-10.1286
あるけど	-10.1286
見ると	-10.1289
だい	-10.1292
使える	-10.1292
公式	-10.1296
癒し	-10.1296
▁昨日の	-10.1299
行かない	-10.13
en	-10.1306
🎈	-10.1309
室	-10.1311
▁/	-10.1313
ご一緒	-10.1314
▁しっかり	-10.1314
普通の	-10.1317
左	-10.1317
会場	-10.1318
みました	-10.1327
イカ	-10.1329
今回	-10.1331
継続	-10.1332
▁無事	-10.1333
ブル	-10.1339
インスタ	-10.1341
トン	-10.1341
お返事	-10.1343
社	-10.1346
理由	-10.1346
何回も	-10.1347
チャンス	-10.135
プラ	-10.1352
ようで	-10.1354
忘れて	-10.1354
同士	-10.1355
ジェ	-10.1357
頼む	-10.1357
きてる	-10.1358
かもしれん	-10.1365
(⁠	-10.1371
中々	-10.1376
って言ってた	-10.1378
えん	-10.1378
wwwwwww	-10.1388
▁無理	-10.139
速	-10.1392
何が	-10.1395
があった	-10.1395
低	-10.1395
配	-10.1396
▁ma	-10.1397
言ってた	-10.1399
まったり	-10.1401
▁c	-10.1403
💥	-10.1407
なんですが	-10.1408
骨	-10.1419
▁東京	-10.1419
ダンス	-10.142
17	-10.1427
表現	-10.1428
▁そうなんです	-10.143
le	-10.1439
でお願いします	-10.144
の日	-10.1444
▁ことよろ	-10.1444
ビックリ	-10.1445
❛	-10.1447
▁Merry	-10.1449
▁いつもありがとうございます	-10.1449
美味しかった	-10.1452
そもそも	-10.1454
▁ちょ	-10.1463
自分は	-10.1466
おり	-10.1472
変わって	-10.1473
似合う	-10.1474
しません	-10.1479
のため	-10.1482
共感	-10.1483
の中	-10.1484
▁f	-10.1484
......?	-10.1484
きつい	-10.1484
つもり	-10.1489
巻	-10.1491
明け	-10.1497
種類	-10.1501
可愛く	-10.1505
☕	-10.1505
街	-10.1505
何とか	-10.1506
走	-10.1508
会おう	-10.1509
💩	-10.1511
🍎	-10.1511
美味い	-10.1515
来ました	-10.1518
試	-10.1519
気軽に	-10.1524
▁マ	-10.1528
損	-10.1529
して欲しい	-10.1532
メール	-10.1534
流れ	-10.1534
肌	-10.154
ワイ	-10.154
ものを	-10.155
テン	-10.1553
走り	-10.1555
ことある	-10.1557
脱	-10.1557
色々と	-10.1565
🥺💕	-10.1569
にした	-10.1571
がいる	-10.1572
ぜひぜひ	-10.1572
める	-10.1575
くんに	-10.1579
▁it	-10.158
どん	-10.1581
😲	-10.1582
せて	-10.1584
なんも	-10.1586
って言われた	-10.1598
思って	-10.1602
ビー	-10.1602
撮り	-10.1603
暖かい	-10.1603
▁一応	-10.1604
立て	-10.1605
ᐝ	-10.1606
🍣	-10.1606
ิ	-10.1611
どうしよう	-10.1614
▁今年もよろしくお願いいたします	-10.1614
と思ってた	-10.1616
▁me	-10.1616
?🥺	-10.1618
込む	-10.1624
💋	-10.1625
ということ	-10.1631
わかった	-10.1632
級	-10.1632
スキル	-10.1635
▁Happy	-10.1635
知らなかった	-10.1639
13	-10.1644
シリーズ	-10.1646
杯	-10.1649
完成	-10.165
ネット	-10.1655
健康	-10.1657
🍶	-10.1661
んですけどね	-10.1662
話して	-10.1666
カス	-10.1669
ただの	-10.1669
弟	-10.1669
かね	-10.1669
時間を	-10.1672
▁́▽`*)	-10.1677
ライン	-10.1679
のツイート	-10.1679
気になって	-10.1685
ゃ	-10.1692
お待ちしております	-10.1692
つらい	-10.1693
くれたら	-10.1698
▁まって	-10.17
おめ	-10.1701
帰省	-10.1701
いいですか	-10.1702
▁やだ	-10.1705
うさぎ	-10.1709
後悔	-10.1711
☺️☺️	-10.1712
▁ぽ	-10.1714
しちゃって	-10.1717
ぁぁ	-10.1719
未	-10.1723
▁ミ	-10.1724
チキン	-10.173
頂きありがとうございます	-10.173
成功	-10.1731
～!!	-10.1733
デビュー	-10.1737
掛け	-10.1738
武器	-10.1738
)♡	-10.174
グループ	-10.1746
コーヒー	-10.1751
ろー	-10.1756
お世話になっております	-10.1758
ピー	-10.1758
バック	-10.1759
ブレ	-10.1769
Happy	-10.1771
▁年末年始	-10.1773
共に	-10.1775
見えない	-10.1776
感情	-10.1778
😍😍😍	-10.1778
めて	-10.1789
何度も	-10.179
いただきました	-10.1795
笑顔で	-10.18
😽	-10.1802
サイ	-10.1804
爆発	-10.1808
エロ	-10.1811
かかって	-10.1814
しな	-10.1814
歯	-10.1816
今年の	-10.1817
来たら	-10.1818
意	-10.1826
今日から	-10.183
変態	-10.1841
大学	-10.1847
それでも	-10.1853
(*゚▽゚*)	-10.1854
なんですよね	-10.1855
んかな	-10.1858
▁すみません	-10.1859
<	-10.1861
▁メリクリ	-10.1865
@	-10.1867
ちぃ	-10.187
▁うち	-10.1872
可哀想	-10.1881
若	-10.1881
るように	-10.1881
精神	-10.1881
基本	-10.1881
腰	-10.1883
町	-10.1884
～～～	-10.189
が悪い	-10.1891
巻き	-10.1895
くり	-10.1896
千	-10.1897
場合	-10.1902
たわ	-10.1904
▁P	-10.191
🙋‍♂️	-10.191
ご連絡	-10.1914
若い	-10.1914
喉	-10.1915
分かって	-10.1915
▁良かった	-10.1915
普段	-10.1917
綺麗な	-10.1921
べき	-10.1922
なんだね	-10.1923
れん	-10.1927
φ	-10.1927
きさん	-10.1928
なう	-10.1928
鯖	-10.1929
ちょい	-10.193
疲れた	-10.193
🏼	-10.1931
ぬい	-10.1932
ˇ	-10.1932
セン	-10.1933
...😇	-10.1936
の時に	-10.1936
チョ	-10.1938
あんな	-10.1939
できました	-10.1941
இ	-10.1942
保存	-10.1946
💖💖	-10.1947
人を	-10.1949
˶	-10.1956
トラ	-10.1957
ッチ	-10.1958
me	-10.1959
かと思った	-10.1961
運命	-10.1962
チケット	-10.1964
番組	-10.1964
こういう	-10.1965
闇	-10.1965
メッセージ	-10.1967
器	-10.197
すか	-10.1973
詰め	-10.1974
っか	-10.1985
過去	-10.1987
費	-10.1988
😪	-10.1988
～✨	-10.1989
販売	-10.1989
キロ	-10.199
電車	-10.199
ッと	-10.199
と思いました	-10.1991
▁W	-10.2
▁マジ	-10.2003
ウンウン	-10.2006
と思うので	-10.2007
一度	-10.2007
▁ど	-10.201
😇😇	-10.2011
十	-10.2011
たくなる	-10.2011
っぱ	-10.2011
かえ	-10.2015
🌺	-10.2016
続ける	-10.2016
飲んだ	-10.2018
)_	-10.2025
ああああ	-10.2031
▁白	-10.2032
成	-10.2038
大体	-10.2038
▁́)`*)	-10.2038
したので	-10.2046
破	-10.2047
😍😍	-10.2048
言われて	-10.205
▁F	-10.205
▁̄*)	-10.205
さぁ	-10.2052
公開	-10.2053
少しでも	-10.2054
フェ	-10.2055
いいけど	-10.2055
男性	-10.2056
ーさん	-10.2056
ar	-10.2057
▁はる	-10.2058
藤	-10.2061
彡	-10.2065
録画	-10.2071
▽	-10.2072
てない	-10.2072
師	-10.2075
嬉し	-10.2075
どうか	-10.2075
日まで	-10.2079
おお	-10.208
ビール	-10.2086
チュ	-10.2088
だぜ	-10.2092
気持ちが	-10.2093
楽しみですね	-10.2095
▁こちらこそありがとうございます	-10.2095
😞	-10.2097
根	-10.2098
冬休み	-10.21
当たり前	-10.2101
攻撃	-10.2106
客	-10.2106
キング	-10.2109
ありますよね	-10.211
これが	-10.2111
!!️!!️!!️!!️!!️	-10.2112
電	-10.2112
?????	-10.212
;&	-10.2121
楽しみに	-10.2122
が良い	-10.2124
怪我	-10.2127
んと	-10.213
異	-10.213
LIVE	-10.2131
なちゃん	-10.2131
やってない	-10.2133
だっけ	-10.2134
てん	-10.2145
壁	-10.2147
限界	-10.2148
助	-10.2152
遠征	-10.2156
⸜(*ˊ	-10.2158
じゃないの	-10.2162
決め	-10.2164
しないで	-10.2166
相	-10.2167
落ち着いて	-10.2169
co	-10.2169
▁わたしは	-10.2172
😭💦	-10.2173
🐸	-10.2174
実家	-10.2175
だぞ	-10.2178
を見	-10.218
▁今日も一日	-10.2182
くらいの	-10.2184
井	-10.2184
なります	-10.2185
⋆	-10.2186
んだろう	-10.2189
りさん	-10.2191
美味しく	-10.2193
んじゃない	-10.2193
弾	-10.2193
界隈	-10.2195
時半	-10.2196
なんや	-10.2201
プラス	-10.2207
えっ	-10.2208
あるので	-10.2209
シン	-10.2209
件	-10.2217
まくり	-10.2219
一つ	-10.2221
悩み	-10.2222
★	-10.2224
▁そっか	-10.2226
🙆	-10.2233
ボール	-10.2237
キン	-10.2241
息子	-10.2248
▁少し	-10.2249
失敗	-10.225
にょ	-10.2254
あかん	-10.2255
泣いた	-10.2258
豆	-10.2259
るな	-10.2259
事は	-10.226
るのに	-10.2263
念	-10.2264
嬉しすぎる	-10.2265
いたので	-10.2265
による	-10.2269
━	-10.2269
一瞬	-10.227
別に	-10.2272
寝ます	-10.2276
〰️	-10.2276
レン	-10.2277
▁おはよぉ	-10.2284
近くに	-10.2285
不思議	-10.2288
行くの	-10.2288
月に	-10.2289
▁́ー	-10.2289
方がいい	-10.2289
いるから	-10.2294
起きた	-10.2297
▁ですよね	-10.2297
▁んー	-10.2297
号	-10.2298
切れ	-10.2302
会おうね	-10.2303
当て	-10.2305
野菜	-10.2312
▁待って	-10.2316
≡	-10.2323
見れて	-10.2325
ですねぇ	-10.2325
ポン	-10.2325
こー	-10.2331
▁当方	-10.2332
少しずつ	-10.2334
パイ	-10.2337
.....	-10.2338
ごと	-10.2346
行ってきます	-10.2347
➰	-10.2349
みなさん	-10.2353
😇😇😇	-10.2354
(〃	-10.2355
ก	-10.2358
最後まで	-10.2362
無理せず	-10.2366
▁リ	-10.2371
私に	-10.2372
面倒	-10.2374
福	-10.2377
オフ	-10.2377
こわい	-10.2378
心の	-10.2378
▁そうです	-10.2386
足りない	-10.2388
森	-10.2391
▁推し	-10.2391
仲	-10.2393
ラッキー	-10.2394
やりましょう	-10.2394
していた	-10.24
できるの	-10.2401
出会い	-10.2402
らい	-10.2402
▁昨年は	-10.2404
開催	-10.2406
可愛いよね	-10.2409
無料	-10.2409
昨日は	-10.2417
バグ	-10.2417
～(	-10.2417
ギリギリ	-10.2418
人とも	-10.2419
角	-10.2423
やらない	-10.2424
しまいます	-10.2427
だったのに	-10.2428
ピンク	-10.2429
ka	-10.2429
ぴー	-10.2429
勇気	-10.243
いき	-10.2432
しん	-10.2434
はある	-10.2435
面白かった	-10.2435
把握	-10.2437
▁とても	-10.2439
カイ	-10.2444
ここまで	-10.2445
ˋ*)⸝	-10.2449
可能性	-10.2452
申し訳ありません	-10.2465
古	-10.2467
?🤣	-10.2469
それな	-10.2469
失礼致します	-10.247
ちょうど	-10.2474
🫶🏻🫶🏻	-10.2475
?!?!	-10.2477
▁L	-10.2482
するわ	-10.2484
💝	-10.2487
▁むしろ	-10.2489
▁久しぶりに	-10.2491
▁お先にフォロー失礼します	-10.2491
キル	-10.2492
▁愛	-10.2492
パターン	-10.2495
目を	-10.2498
😈	-10.2499
▁̄;)	-10.2499
頂き	-10.25
知識	-10.25
脳	-10.2509
歌って	-10.2511
▁ライブ	-10.2512
▁こちらも	-10.2512
逃	-10.2514
▁9	-10.2515
ちなみに	-10.2516
▁あけおめー	-10.2518
僕の	-10.2519
休憩	-10.2522
▁お返事ありがとうございます	-10.2523
なかったので	-10.253
ed	-10.2533
厚	-10.2535
PayPay	-10.2537
🙏🙏	-10.2539
)/	-10.2542
▁ハ	-10.2544
▁まずは	-10.2545
したかった	-10.2552
約束	-10.2553
性格	-10.2556
さが	-10.2557
卵	-10.256
あら	-10.2562
▁よかった	-10.2564
北	-10.2565
▁Year	-10.2567
変わった	-10.2569
わね	-10.2569
良くない	-10.2571
▁最高	-10.2573
片付け	-10.258
当たった	-10.258
二人	-10.2582
表情	-10.2583
厳しい	-10.2583
ほんま	-10.2587
フレンド	-10.259
貰った	-10.2591
橋	-10.2591
想い	-10.2593
えー	-10.2593
階	-10.2593
テスト	-10.2593
するので	-10.2595
可愛すぎて	-10.2596
約	-10.2596
鉄	-10.2601
さら	-10.2603
乗って	-10.2604
PC	-10.2605
楽しみにしています	-10.2607
してくれた	-10.2611
加	-10.2612
後で	-10.2621
~!!	-10.2621
反	-10.2624
書く	-10.2624
𖥦	-10.2624
いか	-10.2625
お疲れさまでした	-10.2626
オー	-10.2627
ありがとね	-10.2627
ませんか	-10.2628
雑	-10.2629
いう	-10.2629
やば	-10.2629
なのは	-10.2633
聞きたい	-10.2635
券	-10.2635
思ってる	-10.2647
楽しみだね	-10.2647
忘年会	-10.2649
になりたい	-10.2657
▁o̴̶̷̤	-10.2657
何より	-10.2657
感が	-10.266
▁おれ	-10.266
いっ	-10.2663
モード	-10.2664
たか	-10.2668
としては	-10.2669
泣いて	-10.2672
出てきた	-10.2672
夕方	-10.2674
神様	-10.2676
関係ない	-10.2677
りー	-10.2679
▁明けましておめでとう	-10.2679
されました	-10.2683
ヴィ	-10.2685
マル	-10.2686
ここで	-10.269
▁そうだね	-10.2692
st	-10.27
ボン	-10.2701
きり	-10.2703
ここに	-10.2707
食べてる	-10.2709
神社	-10.271
がんばれ	-10.2711
グル	-10.2713
までに	-10.2714
の中に	-10.2714
いつもありがとう	-10.2717
なんですよ	-10.2717
額	-10.2721
艸	-10.2727
守	-10.2728
興味	-10.2729
乗	-10.2735
もない	-10.2735
辺り	-10.2741
ぎゅ	-10.2744
お写真	-10.2744
としても	-10.2745
年賀状	-10.2747
帰宅	-10.2751
義	-10.2752
;_&	-10.2754
▁前	-10.2756
当日	-10.2757
デザイン	-10.2759
感じる	-10.2762
言えない	-10.2762
▁たまに	-10.2762
▁アイコン	-10.2764
▁᷆	-10.2765
レイ	-10.2766
忘れてた	-10.2766
👶🏻	-10.2767
▁and	-10.2767
可能です	-10.2769
🐷	-10.2778
頭痛	-10.278
おつかれさま	-10.2781
返し	-10.2781
軽	-10.2782
日の	-10.2782
頼	-10.2785
柄	-10.2786
届く	-10.279
🫶🫶	-10.2791
帯	-10.2798
配布	-10.28
よし	-10.2803
出した	-10.2803
周年	-10.2804
くれるの	-10.2804
でしょうね	-10.281
広	-10.2815
機能	-10.282
しょう	-10.2825
🙆‍♂️	-10.2828
なよ	-10.2829
福岡	-10.2832
▁改めて	-10.2834
wwwwwwwww	-10.2838
関	-10.2839
途中	-10.2843
お気をつけて	-10.2847
決めて	-10.2848
ステージ	-10.2849
各	-10.2851
過ごす	-10.2853
っっっ	-10.2859
信	-10.2861
消	-10.2861
あるよね	-10.2861
🐈‍⬛	-10.2862
▁́-`)	-10.2863
アイス	-10.2864
初詣	-10.2865
綺麗に	-10.2872
皆様	-10.2873
完了	-10.2874
通話	-10.2875
・。)	-10.2876
たくて	-10.2876
ねっ	-10.2876
▁金	-10.2876
▁今回は	-10.2878
見つけて	-10.2878
ダー	-10.2885
用意	-10.2885
緊張	-10.2885
にいる	-10.2886
メイク	-10.2889
╹	-10.2889
ジー	-10.289
の名前	-10.2894
“	-10.2895
いません	-10.2895
していきます	-10.2901
たのしみ	-10.2901
ニキ	-10.2902
カタ	-10.2905
香	-10.2911
付けて	-10.2912
起きてる	-10.2922
てか	-10.2923
▁もしかして	-10.2928
らず	-10.2932
のせい	-10.2933
レス	-10.2934
えぐい	-10.294
煮	-10.2941
出来たら	-10.2944
▁そんなに	-10.2945
なかったけど	-10.295
日常	-10.2952
里	-10.2954
上に	-10.2956
なりました	-10.2956
寝てた	-10.2957
▁おかえり	-10.2958
ma	-10.2959
▁寒い	-10.2959
せず	-10.2963
通常	-10.2965
ドリ	-10.2966
そんなこと	-10.2968
高校	-10.2969
運動	-10.2969
▁•̀	-10.2971
してしまった	-10.2975
片	-10.298
過ごして	-10.2982
打	-10.2985
公	-10.2986
プリン	-10.2986
予定です	-10.2987
調べて	-10.2987
ホーム	-10.299
🦌	-10.2991
まさかの	-10.2993
参考に	-10.2993
ったり	-10.3
まずは	-10.3003
▁えへへ	-10.3004
~~	-10.3004
考える	-10.3006
可愛すぎる	-10.3014
寿司	-10.3016
;;	-10.3016
•)	-10.3025
影	-10.303
▁リプありがとうございます	-10.3031
ゅ	-10.3033
罪	-10.3037
そば	-10.3039
グラ	-10.304
‍♂️	-10.304
▁バイト	-10.3041
殿	-10.3041
長く	-10.3043
大事に	-10.3043
なぜ	-10.3046
は無い	-10.3046
城	-10.3046
軍	-10.3047
絶	-10.3049
休	-10.3049
言われた	-10.3053
増えて	-10.3055
抽選	-10.3055
してから	-10.3057
絡む	-10.3063
トロ	-10.3064
マッ	-10.3064
背中	-10.3067
なのですが	-10.3068
🥴	-10.3068
賞	-10.3071
最悪	-10.3071
画	-10.3072
〜?	-10.3072
▁しかし	-10.3076
▁R	-10.3077
きゅ	-10.3077
久しぶり	-10.3078
越	-10.3079
▁ごめんなさい	-10.3084
えて	-10.3085
そちら	-10.3086
してるよ	-10.3087
ケース	-10.3091
モチベ	-10.3094
助かる	-10.3095
からな	-10.3095
▁ゆー	-10.3096
尊敬	-10.3097
▁気をつけて	-10.31
がんばろ	-10.3111
🎉🎉	-10.3114
エッ	-10.3125
は絶対	-10.3126
バタバタ	-10.3127
あるある	-10.3128
マスター	-10.3129
送	-10.314
▁イ	-10.3142
引く	-10.3143
▁˶	-10.3144
甘い	-10.3145
▁美味しそう	-10.3148
ぼっち	-10.3152
▁新年早々	-10.3156
休んで	-10.3159
😆😆	-10.3162
に対して	-10.3165
まってる	-10.3167
やわ	-10.3167
🌻	-10.3168
捨て	-10.3168
太郎	-10.3171
社長	-10.3171
開始	-10.3174
しすぎて	-10.3178
もなく	-10.3178
挑戦	-10.3178
の時は	-10.3179
▁̳	-10.3181
しとく	-10.3182
匹	-10.3184
舞	-10.3186
降り	-10.3187
もあり	-10.319
😹	-10.3193
格	-10.3197
優	-10.3197
描いた	-10.3199
子ども	-10.32
睡眠	-10.32
集め	-10.3202
うれしいです	-10.3202
貰える	-10.3204
wwwwwwww	-10.3204
〇	-10.3205
大変お世話になりました	-10.3212
▁もち	-10.3212
どっちも	-10.3214
段	-10.3217
ミー	-10.3218
大丈夫だよ	-10.322
寒さ	-10.3223
しに	-10.3225
🦀	-10.3225
加工	-10.3227
可愛いです	-10.3228
集	-10.3229
クリーム	-10.323
▁なん	-10.3232
な感じ	-10.3233
ゆる	-10.3233
関西	-10.3234
▁そういう	-10.3235
フォローして	-10.3239
お譲り	-10.3243
ຶ	-10.3245
論	-10.3247
ひとり	-10.3248
合って	-10.3249
お知らせ	-10.325
まえ	-10.325
薄	-10.3251
▁˶'	-10.3256
お姉さん	-10.3259
▁め	-10.326
分け	-10.3261
300	-10.3262
コツコツ	-10.3263
スクショ	-10.3266
おやあり	-10.3267
しまい	-10.3268
良かったね	-10.327
(-	-10.3271
満	-10.3279
▁mi	-10.3287
マック	-10.3288
きゃ	-10.3289
☺︎	-10.3292
伸び	-10.3292
コロ	-10.3295
こっそり	-10.3297
輪	-10.3298
▁カ	-10.3299
軽く	-10.3301
為	-10.3302
開	-10.3305
変わらない	-10.3307
華	-10.3308
▁あや	-10.3311
早速	-10.3314
▁in	-10.3316
湯	-10.3316
おき	-10.332
ハッピー	-10.3322
魂	-10.3322
▁ゆき	-10.3324
んよね	-10.3324
ありがとうね	-10.3324
ってた	-10.3325
咳	-10.3326
可愛	-10.3326
るのか	-10.3326
発言	-10.3328
▁ᐢ	-10.3328
んだが	-10.3331
両	-10.3331
ほんまに	-10.3332
間違い	-10.3335
es	-10.3336
ママさん	-10.3338
の方に	-10.3339
頑張ろうね	-10.334
最初	-10.3342
って事	-10.3345
嬉しいよ	-10.3345
トーク	-10.3348
んですかね	-10.3353
食べ物	-10.3354
完璧	-10.3356
感染	-10.336
はじめまして	-10.3361
レポ	-10.3361
うれし	-10.3362
食事	-10.3362
いつもありがとうございます	-10.3364
スプラ	-10.3365
se	-10.3367
酷い	-10.337
リス	-10.3373
楽しんでね	-10.3374
ついた	-10.3376
ックス	-10.3376
▁無事に	-10.3378
覚悟	-10.3379
を持って	-10.338
▁かず	-10.3382
'˶)	-10.3382
の方は	-10.3384
生きてる	-10.3389
ロック	-10.3392
▁おつあり	-10.3392
それも	-10.3392
体験	-10.3395
お疲れさま	-10.3398
年の	-10.34
...😂	-10.3401
よろしいでしょうか	-10.3403
明日も	-10.3403
mo	-10.3404
どこかで	-10.3407
だもん	-10.341
▁ᐕ	-10.3412
😝	-10.3415
がい	-10.3418
じゃないと	-10.3421
このまま	-10.3425
アクスタ	-10.3426
早起き	-10.3431
細	-10.3435
ヮ	-10.3436
商品	-10.3437
繋がり	-10.3444
取る	-10.3445
ティー	-10.3448
▁たか	-10.3449
🎤	-10.3457
顔が	-10.3457
😍💕	-10.3458
仲良くしてね	-10.3458
筋肉	-10.3459
楽しむ	-10.3461
使った	-10.3463
辞め	-10.3463
あげたい	-10.3467
▁so	-10.347
😅💦	-10.347
撃	-10.3472
😌✨	-10.3475
大事な	-10.3477
!?︎	-10.3485
あなた	-10.3485
🍚	-10.3488
th	-10.3488
どうぞよろしくお願いいたします	-10.3488
読	-10.3493
楽しみにしてるね	-10.3494
的には	-10.3498
怖	-10.3499
得意	-10.3501
正直	-10.3504
暖かくして	-10.3504
かちゃん	-10.3505
やる気	-10.3507
マシ	-10.3507
😭🙏	-10.3509
ブラック	-10.3512
終わりました	-10.3514
便利	-10.3515
いいかな	-10.3519
紅白	-10.352
られてる	-10.3522
ちい	-10.3531
対策	-10.3535
身長	-10.3536
👍👍	-10.3538
に感謝	-10.3539
オリ	-10.354
日が	-10.3541
お誕生日	-10.3543
わら	-10.3549
いらない	-10.3557
かける	-10.356
付いて	-10.3564
集合	-10.3565
風呂	-10.3566
北海道	-10.3566
谷	-10.3568
▁黒	-10.3572
完全	-10.3573
繋がりたいです	-10.3573
ましたよ	-10.3574
めん	-10.3576
似てる	-10.3578
みんなに	-10.3578
付き合って	-10.3583
이	-10.3583
ーちゃん	-10.3586
なってる	-10.3587
虫	-10.3593
検索	-10.3594
関東	-10.3595
いー	-10.3595
冷え	-10.3596
よき	-10.3599
たー	-10.36
🧐	-10.36
▁*)	-10.3603
お母さん	-10.3604
値段	-10.3605
せい	-10.3609
課題	-10.3611
直接	-10.3613
緑	-10.3613
♨️	-10.3613
買える	-10.3613
カッコイイ	-10.3617
▁ガチ	-10.3618
フォ	-10.3618
値	-10.362
ノー	-10.3622
かどうか	-10.3625
時間に	-10.3627
売り	-10.3635
制限	-10.3635
に入って	-10.3635
▁ほんま	-10.3636
ミン	-10.3637
▁元気	-10.364
途中で	-10.3641
失礼しました	-10.3643
と申します	-10.3645
職	-10.3646
季節	-10.3647
初心者	-10.3648
初め	-10.365
編集	-10.3651
退	-10.3653
▁゚)	-10.3656
余	-10.3657
いち	-10.3662
ビジュ	-10.3665
らせて	-10.3667
といいな	-10.3668
士	-10.3668
;⸝⸝	-10.3676
から大丈夫	-10.3679
ダン	-10.3683
引いて	-10.3685
言え	-10.3687
本気で	-10.3688
は本当に	-10.3688
//	-10.3689
があるから	-10.369
友人	-10.3691
...!!!	-10.37
今年もよろしく	-10.3701
にとって	-10.3704
ダイ	-10.3705
諦め	-10.3713
▁赤	-10.3718
▁▽	-10.3719
...」	-10.372
大きく	-10.3721
みたいなの	-10.3725
麺	-10.3732
ですねー	-10.3733
さんおはよう	-10.3736
ってやつ	-10.374
フリー	-10.3741
ダイエット	-10.3742
みたいですね	-10.3747
勘違い	-10.3747
こちらこそありがとうございました	-10.375
わい	-10.375
優先	-10.3752
ちゃま	-10.3754
そんな感じ	-10.3755
知らんけど	-10.376
担当	-10.3764
🌊	-10.3765
伝え	-10.3765
いくら	-10.3772
当	-10.3773
団	-10.3774
おっ	-10.3774
≖	-10.3776
ほう	-10.3778
31	-10.3779
ける	-10.3782
▁皆様	-10.3783
店舗	-10.3784
いるよ	-10.3786
思います	-10.3787
天気	-10.3791
▁うーん	-10.3792
おじ	-10.3796
祝	-10.3797
▁新しい	-10.3799
男子	-10.3799
グリ	-10.3801
にある	-10.3804
居ない	-10.3808
😠	-10.3809
フォロバ	-10.3813
応援して	-10.3813
去年	-10.3813
剣	-10.3814
ボイス	-10.3815
▁沢山	-10.3817
勝負	-10.3821
▁ˊ	-10.3823
▁なお	-10.3826
▁ひな	-10.3827
そうだ	-10.383
💪✨	-10.3831
▁こちらこそです	-10.3832
に入れて	-10.3833
🕺	-10.3835
危険	-10.3837
条件	-10.3839
🤝🏻	-10.3839
手に	-10.3841
わくわく	-10.3842
▁本年も	-10.3843
言わ	-10.3843
遊びたい	-10.3846
👏👏	-10.3847
ne	-10.3849
かもだけど	-10.385
済み	-10.3852
▁正月	-10.3852
イヤ	-10.3854
りたい	-10.3854
▁頑張れ	-10.3855
らしいです	-10.3857
▁あれは	-10.3861
世代	-10.3863
▁G	-10.3865
👑	-10.3865
悩む	-10.3865
はじめ	-10.3866
です笑	-10.3866
...💦	-10.3868
類	-10.3872
▁神	-10.3875
スク	-10.3878
▁̄꒳	-10.3878
とにかく	-10.3879
締め	-10.388
工	-10.388
26	-10.3883
取れ	-10.3883
▁これが	-10.3884
▁́•	-10.3885
▁特に	-10.3886
牛	-10.3889
しよー	-10.3889
止め	-10.389
確実に	-10.389
変え	-10.3893
良さそう	-10.3893
欲	-10.3893
ればいい	-10.3897
👼	-10.3899
に向けて	-10.3899
チェ	-10.39
末	-10.39
🐙	-10.3901
しようかな	-10.3902
方も	-10.3905
───	-10.3906
▁ぱ	-10.3906
スカ	-10.3906
▁おや	-10.391
上がり	-10.3911
どうしても	-10.3911
▁こちらこそありがとう	-10.3912
用の	-10.3915
愛してる	-10.3918
とり	-10.3918
始める	-10.3919
ホッ	-10.3925
当たって	-10.3925
▁そもそも	-10.3927
深い	-10.3927
▁凄い	-10.3931
の為に	-10.3931
やだ	-10.3932
くらいに	-10.3932
お顔	-10.3938
走って	-10.3938
▁いつもありがとう	-10.3939
▁これからもよろしくね	-10.3939
▁ひろ	-10.3942
やれ	-10.3942
いただいた	-10.3944
チーズ	-10.3947
になれる	-10.395
思わず	-10.3957
扱い	-10.3957
un	-10.3959
▁エ	-10.3961
強く	-10.3962
夫婦	-10.3962
_(	-10.3963
▁草	-10.3963
クリスマスプレゼント	-10.3964
開け	-10.3964
お肉	-10.3966
ミニ	-10.3966
その後	-10.3967
アウト	-10.3968
こない	-10.3972
ライト	-10.3973
付	-10.3974
(*・	-10.3978
イチ	-10.3981
誘って	-10.3983
▁おめ	-10.3984
りゅ	-10.3985
ワンチャン	-10.3992
フォローありがとうございます	-10.3992
そうだった	-10.3995
短い	-10.3999
悔しい	-10.4001
事実	-10.4003
暖	-10.4004
ON	-10.4007
分の	-10.4009
っく	-10.4011
英語	-10.4011
🍃	-10.4013
田さん	-10.4016
๑⃙⃘	-10.4017
▁あけおめことよろ	-10.4019
制	-10.4019
本日	-10.4022
▁J	-10.4023
▁p	-10.4025
じょ	-10.4031
歩いて	-10.4031
中身	-10.4034
...😅	-10.4036
ハー	-10.4036
ブログ	-10.4042
大切	-10.4043
んだけどね	-10.4049
月の	-10.4052
▁サ	-10.4053
調整	-10.4055
お雑煮	-10.4059
オレ	-10.406
乳	-10.4062
んやろ	-10.4062
釣り	-10.4065
地域	-10.4069
✌︎	-10.4069
見ました	-10.4071
編	-10.4071
くれてる	-10.4072
▁おつかれさま	-10.4074
坂	-10.4074
ワクチン	-10.4075
営業	-10.4076
引き続き	-10.4077
まくって	-10.4078
▁優しい	-10.4085
〜💦	-10.4085
お出かけ	-10.4087
のほうが	-10.4088
中の	-10.4088
ki	-10.409
〜!!️	-10.4091
教え	-10.4093
届いて	-10.4093
▁次の	-10.41
多くて	-10.4101
背	-10.4103
の時間	-10.4104
に来て	-10.4104
菜	-10.4105
かつ	-10.4106
...🥹	-10.4111
しちゃいました	-10.4113
残業	-10.4115
も好き	-10.4117
症状	-10.4117
▁みなさん	-10.4119
戻	-10.4119
▁今まで	-10.412
変わり	-10.4124
ご褒美	-10.4125
🥹🫶	-10.4125
アー	-10.4128
書いた	-10.4132
取	-10.4132
になってた	-10.4133
🦍	-10.4135
ランド	-10.4136
ザー	-10.4138
▁is	-10.4139
最高でした	-10.414
売って	-10.414
作れる	-10.414
やー	-10.414
乾杯	-10.4141
言わない	-10.4148
ぶち	-10.4148
▁どこ	-10.4149
があるので	-10.415
リツイート	-10.415
仕	-10.4152
%	-10.4152
っとる	-10.4152
そこに	-10.4154
▁ねえ	-10.416
様の	-10.416
が必要	-10.4164
展開	-10.4165
滅	-10.4167
変わらず	-10.4171
ないよね	-10.4171
よっ	-10.4176
パス	-10.4178
その時	-10.4178
😊👍	-10.4179
60	-10.4181
‍♀️	-10.4182
スルー	-10.4182
なんと	-10.4183
方に	-10.4186
合わせて	-10.4187
君の	-10.4189
てて	-10.4192
欲し	-10.4198
(^-^)	-10.4199
後半	-10.42
どうやって	-10.4213
▁ほんまに	-10.4214
でもいい	-10.4218
ショック	-10.4219
んねん	-10.422
何故か	-10.4221
職場	-10.4222
▁うわぁ	-10.4223
ノン	-10.4226
なか	-10.4229
お疲れ	-10.4231
盛り	-10.4233
♩	-10.4233
粉	-10.4234
⭐	-10.4236
塗り	-10.424
⤴️	-10.4241
やめろ	-10.4243
秋	-10.4244
兄弟	-10.4245
できそう	-10.4248
装	-10.4249
なんだか	-10.425
油	-10.4251
▁s	-10.4251
ですな	-10.4255
お手伝い	-10.4255
照れ	-10.4255
ニコニコ	-10.4255
▁年明け	-10.4256
てぃ	-10.4257
バラ	-10.426
ようです	-10.4261
されたら	-10.4265
両方	-10.4267
頂いた	-10.4269
幸	-10.4269
詳細	-10.4269
しお	-10.427
あっという間	-10.4271
龍	-10.4271
すん	-10.4272
確か	-10.4274
判断	-10.4275
尾	-10.4277
タグ	-10.4282
たし	-10.4282
コト	-10.4285
見てて	-10.429
yo	-10.4291
咲	-10.4293
▁写真	-10.4295
の声	-10.4297
ノリ	-10.4297
心に	-10.4298
かす	-10.4301
来てくれる	-10.4302
しとる	-10.4303
笑笑笑笑	-10.4305
かもね	-10.4308
▁ぴ	-10.4308
のとこ	-10.4309
🤘	-10.4314
時まで	-10.4314
好きだから	-10.4319
なにか	-10.4321
なかったです	-10.4322
友達と	-10.4325
してくれてありがとう	-10.4326
実感	-10.4327
🔥🔥🔥	-10.4327
重い	-10.4327
流石に	-10.4331
土日	-10.4332
ポチ	-10.4334
瀬	-10.4335
ぴょん	-10.4337
▁100	-10.4337
▁寝	-10.4339
るね	-10.4339
開いて	-10.4341
なっ	-10.4342
だったんですね	-10.4347
とく	-10.435
布団	-10.4351
解決	-10.4354
▁フォロー失礼します	-10.4357
以降	-10.4358
浮上	-10.4359
元気で	-10.4359
きたら	-10.436
おめでと	-10.436
▁おめでと	-10.4361
▁こん	-10.4361
ってます	-10.4362
しー	-10.4364
リベンジ	-10.4365
だけです	-10.4365
〜😍	-10.4368
まち	-10.4368
いいですよ	-10.4368
難	-10.4369
奥	-10.4373
!☀️	-10.4375
👏🏻	-10.4376
と思うよ	-10.4377
ごはん	-10.4378
と一緒	-10.4379
お付き合い	-10.4379
語り	-10.4381
分からん	-10.4382
奇跡	-10.4383
旦那	-10.4394
助けて	-10.4396
寒	-10.4396
🪄	-10.4401
決まって	-10.4403
お待ちしてます	-10.4403
この前	-10.4404
ry	-10.4405
目で	-10.441
サイン	-10.441
🍒	-10.4411
🌄	-10.4411
簡単	-10.4411
▁さて	-10.4413
▁初めて	-10.4415
おせち	-10.4416
焼肉	-10.4417
の曲	-10.4418
髪の毛	-10.4423
頑張り	-10.4424
紹介	-10.4425
すいません	-10.4427
パク	-10.443
さんおはよ	-10.443
呼び方	-10.4431
MA	-10.4433
29	-10.4436
泣きそう	-10.4436
ひな	-10.4438
するのは	-10.4441
りんさん	-10.4444
系の	-10.4445
li	-10.4449
一人で	-10.445
のライブ	-10.4456
午後	-10.4463
お昼	-10.4467
世の中	-10.4468
になるの	-10.4469
本当にありがとう	-10.4472
▁猫	-10.4472
責任	-10.4475
▁はぁ	-10.448
ぉぉ	-10.4486
やること	-10.4486
第	-10.4487
2000	-10.449
乱	-10.4492
今後	-10.4493
簡単に	-10.4493
るー	-10.4494
抜き	-10.4496
売	-10.4497
(•	-10.4497
▁おやあり	-10.4498
社会	-10.4498
向	-10.4498
さんありがとう	-10.4499
のイメージ	-10.4505
・*)	-10.4505
▁みんなで	-10.4505
しく	-10.4505
ハート	-10.4506
時間は	-10.4506
▁お返事	-10.4507
‹”	-10.4513
検討	-10.4518
😆😆😆	-10.4526
らしく	-10.453
▁フォロバ失礼します	-10.4532
筋トレ	-10.4533
メモ	-10.4536
見ない	-10.4541
ぁー	-10.4544
キタ	-10.4545
温	-10.4546
ほし	-10.4551
ものは	-10.4551
ナー	-10.4554
最終	-10.4556
真似	-10.456
接	-10.4565
❣️❣️	-10.4565
慣れ	-10.4568
▁あざ	-10.457
ラジオ	-10.4573
▁30	-10.4574
`●)	-10.4575
どれ	-10.4576
になっちゃった	-10.4577
▁まー	-10.4581
27	-10.4581
マリ	-10.4582
残って	-10.4582
80	-10.4582
うちも	-10.4585
遊ぼ	-10.4586
くれない	-10.4588
反省	-10.459
⸝⸝&	-10.4595
トップ	-10.4596
...🥲	-10.4598
ぶん	-10.4605
そうですよね	-10.4607
である	-10.4608
大切な	-10.4611
復帰	-10.4614
ver	-10.4616
路	-10.4617
気をつけ	-10.4618
デカ	-10.4618
沢	-10.4621
っちさん	-10.4621
🤣🤣🤣🤣	-10.4622
気を	-10.4622
頂きました	-10.4623
空気	-10.4623
ドル	-10.4624
際	-10.4625
回り	-10.4629
映像	-10.463
日で	-10.4631
オール	-10.4633
間違えて	-10.4635
わけない	-10.4636
列	-10.4636
❕❕	-10.4637
サイト	-10.4638
助かります	-10.4641
時々	-10.4641
切った	-10.4642
カワイイ	-10.4643
❣	-10.4645
タメ	-10.4649
😺	-10.4649
ほっこり	-10.4651
ついてる	-10.4653
届いた	-10.4653
28	-10.4654
みー	-10.4657
かれ	-10.4659
汁	-10.4664
▁タグ反応ありがとうございます	-10.4664
全国	-10.4664
el	-10.4668
どうにか	-10.467
たっぷり	-10.467
言い方	-10.467
...!?	-10.4671
ファイトです	-10.4672
発信	-10.4675
セーフ	-10.4676
落	-10.4678
あたし	-10.4678
PS	-10.468
〜♡	-10.4684
応援してます	-10.4685
って言われて	-10.4686
進化	-10.4687
有難うございます	-10.469
▁ス	-10.4691
せない	-10.4693
こら	-10.4694
にします	-10.4698
迷惑	-10.4699
▁夢	-10.4699
言うと	-10.4699
フフフ	-10.4701
▁去年は	-10.4701
▁わかります	-10.4701
▁そりゃ	-10.4707
▁大晦日	-10.4708
バランス	-10.4711
こちらも	-10.4718
と思い	-10.4722
バンド	-10.4723
▁\	-10.4723
クレ	-10.4728
〜🥹	-10.4731
億	-10.4736
はやく	-10.4736
だったり	-10.4737
ID	-10.4737
仕様	-10.4737
もあって	-10.4737
危ない	-10.4738
コンビニ	-10.4739
固定	-10.474
勝て	-10.474
遊びに	-10.4744
歌う	-10.4746
〆	-10.4746
住み	-10.475
ΦωΦ	-10.475
来年もよろしく	-10.4754
確率	-10.4754
まー	-10.4755
ソン	-10.4757
🌃	-10.4757
って何	-10.4762
▁O	-10.4766
▁なんなら	-10.4767
情	-10.4767
きん	-10.4768
覚えてる	-10.4769
初日	-10.4774
ガチで	-10.4774
副業	-10.4776
おおおお	-10.4778
行きましょ	-10.4779
迎え	-10.4779
管理	-10.478
私たち	-10.4787
いたします	-10.4788
暗	-10.4793
違	-10.4794
ディズニー	-10.4794
ちー	-10.4797
ナン	-10.4797
ギャ	-10.4799
見るの	-10.4799
だなんて	-10.48
来週	-10.48
▁よいお年を	-10.4802
▁ありがとうー	-10.4803
▁日本	-10.4812
ありますか	-10.4812
嫌な	-10.4814
バイク	-10.4814
▁この前	-10.482
やんけ	-10.4822
カナ	-10.4824
は無理	-10.4825
髪型	-10.4829
気を付けて	-10.4829
事に	-10.4835
といいですね	-10.4838
ベスト	-10.4838
👏✨	-10.4839
伝	-10.484
ホール	-10.4842
ものが	-10.4843
▁自分で	-10.4843
▁ああ	-10.4844
5000	-10.4845
もはや	-10.4849
サービス	-10.4851
中で	-10.4852
文章	-10.4852
楽しもうね	-10.4858
▁これからもよろしくお願いします	-10.4866
馬鹿	-10.4866
リクエスト	-10.4867
特	-10.4868
▁やっ	-10.4868
おん	-10.4868
リプありがとう	-10.4868
美人	-10.4869
見ながら	-10.4871
記	-10.4873
の動画	-10.4874
ション	-10.4878
ちゃんおはよー	-10.488
▁普段	-10.488
武	-10.488
ʔ	-10.488
具合	-10.4883
遅	-10.4888
at	-10.4888
喧嘩	-10.4889
ボー	-10.4889
しんど	-10.4893
オフ会	-10.49
温泉	-10.4904
おはありです	-10.4906
健	-10.4906
昨日の	-10.4909
つける	-10.4909
師匠	-10.491
見た目	-10.4911
▁ぬ	-10.4913
なんだよね	-10.4918
送り	-10.492
もらいました	-10.4921
▁サンタさん	-10.4923
増える	-10.4923
変化	-10.4931
大丈夫かな	-10.4932
▁そうなんですよ	-10.4932
バッ	-10.4934
返す	-10.4941
見つけた	-10.4943
る人	-10.4945
メガネ	-10.4945
いると	-10.4948
っちゃって	-10.495
寺	-10.4952
といい	-10.4953
最終日	-10.4953
って思ってる	-10.4953
やぁ	-10.4956
最後に	-10.4961
尊	-10.4962
ほしいです	-10.4962
〜❣️	-10.4962
ウン	-10.4963
゚д゚	-10.4969
🍌	-10.4969
登録	-10.4972
考えた	-10.4972
うさ	-10.4975
起こ	-10.4975
シャツ	-10.4975
登場	-10.498
▁素晴らしい	-10.4981
‘	-10.4982
さく	-10.4986
の気持ち	-10.4991
パラ	-10.4992
๓	-10.4995
ˊ	-10.4997
😳✨	-10.4997
楽しみましょう	-10.4997
みよ	-10.4997
常に	-10.4998
▁今日もよろしくね	-10.4999
もうすぐ	-10.5
さと	-10.5001
すけさん	-10.5005
会った	-10.5005
携帯	-10.5005
▁俺が	-10.5006
ことで	-10.5007
だが	-10.5008
ぽい	-10.5011
▁早速	-10.5011
▁そうなんだ	-10.5011
!!!!!!!!!	-10.5011
▁おはよーございます	-10.5012
投資	-10.5012
▁水	-10.5014
▁体調	-10.5015
紫	-10.5016
が違う	-10.5018
過	-10.5019
変更	-10.5022
もらい	-10.5023
ゆき	-10.5024
🙆🏻‍♀️	-10.5025
運営	-10.503
🥕	-10.5033
替え	-10.5033
価値	-10.5037
聴き	-10.5038
脚	-10.5039
·͜·	-10.5039
オンライン	-10.504
私と	-10.5041
我	-10.5043
続く	-10.5043
♡♡♡	-10.5045
(=	-10.5045
👊🏻	-10.5047
🙏🙏🙏	-10.5048
割り	-10.5048
してるけど	-10.505
具	-10.5051
リンク	-10.5052
💦💦💦	-10.5052
あちゃん	-10.5054
門	-10.5054
📸	-10.5054
;*)	-10.5055
。「	-10.5055
〜(*	-10.5057
しら	-10.5057
って呼んで	-10.5062
申請	-10.5063
ジャン	-10.5064
けて	-10.5064
働いて	-10.5065
嫌だ	-10.5065
想	-10.5066
攻め	-10.5069
▁お願いします	-10.5069
話したい	-10.5071
;。)	-10.5072
さー	-10.5073
▁フォロバありがとうございます	-10.5075
▁こちらこそよろしくね	-10.5076
中です	-10.5078
いら	-10.5079
ーズ	-10.508
入れた	-10.5081
って話	-10.5083
致します	-10.5084
▁どっちも	-10.5084
としたら	-10.5084
嬉しいな	-10.5087
すでに	-10.5091
▁※	-10.5093
以外は	-10.5093
じゃないか	-10.5098
低い	-10.5099
そこで	-10.51
働き	-10.5104
って思ってた	-10.5109
トー	-10.511
キュ	-10.5113
さんこんばんは	-10.5116
目的	-10.5118
𓈒	-10.5118
聖	-10.512
ステキ	-10.5121
ハグ	-10.5121
AI	-10.5122
最初の	-10.5122
良かったら	-10.5122
▁ついに	-10.5125
▁for	-10.5125
隊	-10.5126
💮	-10.5128
フラ	-10.5129
ということで	-10.5131
後ろ	-10.5134
(`	-10.5134
🍗	-10.5137
たまらん	-10.5139
荷物	-10.5142
んでしょうね	-10.5142
▁それでも	-10.5144
じゃないよ	-10.5145
ブルー	-10.515
権	-10.5152
༎	-10.5154
na	-10.5154
言える	-10.5156
雲	-10.5156
と思いますが	-10.5164
ありますね	-10.5164
あるし	-10.5166
▁ねー	-10.5168
▁はよ	-10.5172
大切に	-10.5173
🔥🔥	-10.5173
探	-10.5177
💗💗💗	-10.5178
をして	-10.5178
買え	-10.518
おきます	-10.5182
棒	-10.5183
⑅	-10.519
>	-10.5193
が無い	-10.5193
なんなら	-10.5199
すけ	-10.5199
のまま	-10.52
色々な	-10.5202
▁゚д゚	-10.5203
日本語	-10.5203
▁そこ	-10.5204
💕︎💕︎	-10.5206
動く	-10.5206
以上に	-10.521
死んだ	-10.5211
▁きゃ	-10.5213
靴	-10.5213
そん	-10.5214
向け	-10.5218
枚目	-10.5221
珍しい	-10.5226
▁̇ᴗ	-10.5228
まとめて	-10.5231
🙇🏻‍♂️	-10.5233
羨ましいです	-10.5233
色違い	-10.5235
あっても	-10.5238
カツ	-10.5238
んだな	-10.524
からも	-10.5242
行ってくる	-10.5242
ルール	-10.5243
しょうがない	-10.5244
なこと	-10.5244
時点で	-10.5245
▁i	-10.5245
コラ	-10.5246
心臓	-10.525
総	-10.5251
陽	-10.5251
ブリ	-10.5252
▁明日の	-10.5254
でしたら	-10.526
たさん	-10.5262
病気	-10.5264
日から	-10.5266
ch	-10.5266
そうだよね	-10.5267
データ	-10.5269
氷	-10.5269
むさん	-10.527
つら	-10.527
💍	-10.5271
売ってる	-10.5272
気持ちは	-10.5273
盛	-10.5274
読む	-10.5275
ハム	-10.5276
安心して	-10.5277
▁ホントに	-10.528
どこに	-10.528
素材	-10.528
図	-10.5283
床	-10.5284
日曜日	-10.5284
👶	-10.5286
切る	-10.529
端	-10.5291
そりゃ	-10.5291
新幹線	-10.5291
間違いない	-10.5293
気づいた	-10.5293
ボケ	-10.5293
👀✨	-10.5296
。゚(゚	-10.5296
おらん	-10.5296
打って	-10.5297
大丈夫ですよ	-10.5299
子ちゃん	-10.53
あれは	-10.5304
気になります	-10.5305
!!!(	-10.5305
以外の	-10.5305
ss	-10.5306
最初から	-10.5306
って言ってる	-10.5311
マーク	-10.5311
とかは	-10.5312
科	-10.5314
▁是非是非	-10.5315
😊😊	-10.5315
////	-10.5316
キュン	-10.5317
▁H	-10.5317
違和感	-10.5317
話題	-10.532
オシャレ	-10.5322
けー	-10.5323
至	-10.5324
相当	-10.5325
不足	-10.5328
していく	-10.5332
パンツ	-10.5332
ꕤ	-10.5333
ドーム	-10.5334
(≧∇≦)	-10.534
バトル	-10.534
辛	-10.5341
おわ	-10.5341
▁がんばれ	-10.5344
適当に	-10.5345
▁of	-10.5346
たんだけど	-10.5347
もあるし	-10.5348
やってます	-10.5349
▁今年最後の	-10.535
▁流石に	-10.535
証	-10.5357
計	-10.5361
年でした	-10.5362
あや	-10.5363
受	-10.5364
会えた	-10.5364
▁de	-10.5364
食べるの	-10.5364
de	-10.5367
できなかった	-10.5367
ガチ勢	-10.5368
先生の	-10.5368
おばあちゃん	-10.5372
缶	-10.5377
温かい	-10.5378
が出る	-10.5379
持ってない	-10.5381
お誕生日おめでとう	-10.5381
るよね	-10.5381
🎍🐰	-10.5381
ᾥ	-10.5383
皮	-10.5384
魔法	-10.5385
好きなの	-10.5385
回って	-10.5385
▁なな	-10.5393
▁名古屋	-10.5397
暖かく	-10.5398
ないか	-10.5403
わり	-10.5403
相性	-10.5404
💞💞	-10.5404
休日	-10.5406
・᷅	-10.5406
よろしくおねがいします	-10.5413
報	-10.5414
ソー	-10.5414
しめ	-10.5415
たくさんの	-10.5415
◌	-10.5417
元気な	-10.5418
他に	-10.5419
バイ	-10.5421
お誕生日おめでとうございます	-10.5423
🍖	-10.5428
▁今週も	-10.5429
京都	-10.5429
代わりに	-10.5432
頑張って下さい	-10.5432
平和	-10.5434
本当にありがとうございます	-10.5434
利用	-10.5434
鍵	-10.5435
ている	-10.5435
▁分かる	-10.5439
👍👍👍	-10.544
終	-10.5443
やるか	-10.545
清	-10.5451
行ってる	-10.5453
ちゃんあけおめ	-10.5453
もろて	-10.5454
で草	-10.5454
いい子	-10.5455
♪(	-10.5462
ギリ	-10.5464
🫶💕	-10.5465
多く	-10.5469
人達	-10.5469
(*^	-10.5474
いい感じ	-10.5474
のよね	-10.5474
キャリー	-10.5476
いいこと	-10.5477
ポーズ	-10.5477
園	-10.5479
回収	-10.5483
めい	-10.5484
伝えて	-10.5485
もんな	-10.5485
本人	-10.5488
うう	-10.549
行きたかった	-10.549
ッシュ	-10.5493
ハァハァ	-10.5493
......。	-10.5497
生きる	-10.5498
ちさん	-10.5501
味方	-10.5501
戸	-10.5503
ちょー	-10.5503
ちゃいます	-10.5504
なんだろ	-10.5504
現場で	-10.5509
非	-10.551
いけない	-10.5511
たしかに	-10.5515
キリ	-10.5517
くろ	-10.5517
ひたすら	-10.5518
変えて	-10.5518
常	-10.5518
▁間違いない	-10.5518
だったのか	-10.5518
褒め	-10.552
んだろうな	-10.5522
キス	-10.5522
膝	-10.5526
サブ	-10.5528
ツボ	-10.5529
私には	-10.5532
の顔	-10.5533
▁ほんとそれ	-10.5534
されている	-10.5536
してしまう	-10.5536
ううう	-10.5538
同じく	-10.5539
楽しめる	-10.5544
すっ	-10.5544
間違いなく	-10.5545
ネコ	-10.5546
お兄ちゃん	-10.555
してきます	-10.555
まった	-10.5551
ずーっと	-10.5551
ッッッ	-10.5553
～😆	-10.5553
の世界	-10.5553
限	-10.5554
仕事始め	-10.5557
帽子	-10.5559
るぅ	-10.5562
優しさ	-10.5564
帰ってきて	-10.5565
白い	-10.5565
ようになった	-10.5567
カット	-10.5567
▁行ってらっしゃい	-10.5568
お願いいたします	-10.5571
*&	-10.5572
!!✨	-10.5573
キャン	-10.5575
わたしは	-10.5577
🌿	-10.5578
にしても	-10.558
バージョン	-10.5582
スッキリ	-10.5591
銀	-10.5593
福袋	-10.5593
んかった	-10.5595
▁そうだよ	-10.5597
落ちて	-10.5599
狙い	-10.56
発見	-10.56
祭り	-10.56
ly	-10.5602
されてた	-10.5606
GO	-10.5614
そうだけど	-10.5615
能力	-10.5617
▁今回	-10.5617
分かった	-10.5617
すー	-10.5619
ჱ̒	-10.5619
ダウン	-10.5619
隣	-10.5622
.*	-10.5622
そこから	-10.5623
豪華	-10.5625
ってなって	-10.5626
😂💦	-10.5632
lo	-10.5633
そら	-10.5636
☁️	-10.564
*.	-10.5647
コート	-10.5647
空いてる	-10.5648
見てない	-10.5652
とって	-10.5652
平気	-10.5655
地元	-10.5655
▁どう	-10.5658
の間	-10.5659
タイミングで	-10.566
邪魔	-10.5661
えっち	-10.5664
注文	-10.5667
センター	-10.5668
込んだ	-10.567
作れ	-10.5671
▁いえ	-10.5671
並んで	-10.5672
して下さい	-10.5673
久々	-10.5673
Xmas	-10.5675
꙳	-10.5676
▁毎年	-10.5676
も可愛い	-10.5677
💖💖💖	-10.5679
おつかれ	-10.568
後の	-10.5683
はいつも	-10.5684
記念	-10.5689
筋	-10.569
楽しみにしております	-10.5693
上の	-10.5694
▁お年玉	-10.5701
🔪	-10.5701
楽しかったよ	-10.5702
闘	-10.5704
うるさい	-10.5705
チー	-10.5706
時には	-10.5709
夜勤	-10.5709
晴れ	-10.5713
労	-10.5713
恥ずかし	-10.5714
タマ	-10.5716
朝活	-10.5717
美味しかったです	-10.5719
no	-10.5719
でかい	-10.5726
幸せです	-10.5727
貴方	-10.573
︎︎	-10.573
百	-10.5732
積	-10.5733
▁めちゃめちゃ	-10.5736
いきましょ	-10.5736
▁今度は	-10.5737
Q	-10.5739
芋	-10.5739
突然	-10.5742
ジョ	-10.5744
帰ってきた	-10.5745
チャー	-10.5745
ばん	-10.5746
交流	-10.5746
のところ	-10.5747
興奮	-10.5749
りする	-10.5749
共	-10.575
🐤	-10.5751
パック	-10.5752
🇯🇵	-10.5756
SNS	-10.5756
天井	-10.576
▁お疲れ	-10.576
ずるい	-10.576
ラス	-10.5761
おけ	-10.5762
ショー	-10.5764
撮る	-10.5766
やりましょ	-10.5771
ばか	-10.5774
体重	-10.5777
彩	-10.5782
嬉しかったよ	-10.5784
歩き	-10.5784
推しの	-10.5785
胃	-10.5785
子が	-10.5788
ニュース	-10.5791
るのも	-10.5795
て草	-10.5797
▁ポケモン	-10.5798
もしかしたら	-10.5799
とんでもない	-10.5799
▁なんとか	-10.5801
▁それで	-10.5805
お土産	-10.5807
知りたい	-10.5811
▁まさ	-10.5812
▁be	-10.5812
要素	-10.5812
したくない	-10.5812
ひどい	-10.5812
上司	-10.5813
初期	-10.5813
引	-10.5815
▁せっかく	-10.5819
仲良くしてくれてありがとう	-10.5819
取れる	-10.5819
コー	-10.5819
赤ちゃん	-10.582
ねば	-10.582
許して	-10.5822
j	-10.5822
受験	-10.5824
使用	-10.5825
▁かなり	-10.5826
クス	-10.5827
ければ	-10.5827
寄り	-10.583
返事	-10.5831
次回	-10.5833
自己	-10.5833
よかったね	-10.5833
▁今の	-10.5835
何処	-10.5836
🐣	-10.5837
🤦🏻‍♀️	-10.5839
ジム	-10.5841
😍✨	-10.5842
さない	-10.5843
そういうの	-10.5844
アカ	-10.5846
🍷	-10.5846
マルチ	-10.5848
よかったら	-10.5851
壊	-10.5853
起きる	-10.5853
決定	-10.5854
▁正直	-10.5855
だれ	-10.5855
▁E	-10.5856
が出て	-10.5861
▁誰	-10.5862
じん	-10.5867
整理	-10.5868
あっという間に	-10.5869
スノ	-10.587
計画	-10.5873
増えた	-10.5877
𓈒𓏸	-10.5878
してたから	-10.5878
カロリー	-10.5881
はじめて	-10.5883
くださって	-10.5885
マッチ	-10.5885
出せ	-10.5886
おこ	-10.5887
▁あん	-10.5887
まとめ	-10.5888
クマ	-10.5889
会えたら	-10.5889
▁違う	-10.5891
歌詞	-10.5893
😁👍	-10.5894
死んで	-10.5899
いいのか	-10.5902
解放	-10.5903
さんおはありです	-10.5903
人いる	-10.5904
リプありがとうございます	-10.5905
置き	-10.5906
お返し	-10.5907
安全	-10.5908
もあった	-10.5908
一般	-10.5911
してくださいね	-10.5919
はちょっと	-10.5919
𐤔𐤔	-10.592
キャンプ	-10.5925
節	-10.5927
があるの	-10.5929
🍾	-10.593
思い出した	-10.5931
貴重な	-10.5932
誰が	-10.5932
▁ウ	-10.5934
してるので	-10.5934
ひろ	-10.5934
だと思って	-10.5936
会えて	-10.5936
確	-10.5936
スープ	-10.5939
どうぞよろしくお願いします	-10.5945
都合	-10.5945
ところが	-10.5946
と思うと	-10.5947
問	-10.5948
底	-10.5949
お世話	-10.5949
ね笑	-10.5949
好きな人	-10.595
こいつ	-10.5955
▁僕の	-10.5956
ご安全に	-10.5958
開けて	-10.596
って言った	-10.5962
金曜日	-10.5967
のとき	-10.5973
させていただきました	-10.5974
💸	-10.5974
ボス	-10.5977
海外	-10.5978
ワイン	-10.598
あなたの	-10.5982
▁美味しい	-10.5982
愛を	-10.5982
言われる	-10.5986
しかし	-10.5987
ってことで	-10.5988
来ます	-10.5988
せっかく	-10.5991
行くから	-10.5995
まさに	-10.5995
窓	-10.5995
連勤	-10.6
▁こう	-10.6001
◯	-10.6002
知り合い	-10.6003
▁フォロバ	-10.6004
いかない	-10.6005
▁いやー	-10.6009
お言葉	-10.6011
醤油	-10.6017
絵文字	-10.6018
ョ	-10.6024
出てきて	-10.6026
なんだろう	-10.6027
いらん	-10.6027
ヤバ	-10.603
大変な	-10.603
思ってた	-10.6031
ッタ	-10.6033
消し	-10.6033
▁去年	-10.6035
になれ	-10.6035
マイナス	-10.6037
ha	-10.6037
田舎	-10.6037
▁こんなに	-10.6038
ですー	-10.6041
諦めて	-10.6042
勢い	-10.6044
撮った	-10.6047
☺️☺️☺️	-10.6047
誤字	-10.6048
格好	-10.6051
ひょ	-10.6052
o̴̶̷̤	-10.6053
本当にありがとうございました	-10.6055
⸝⸝⸝	-10.6056
‹"	-10.6059
するのが	-10.606
おはよぉ	-10.6064
イケ	-10.6065
進んで	-10.6066
できれば	-10.6067
選択	-10.6069
🐰✨	-10.6069
桜	-10.6071
明けましておめでとう	-10.6077
アーカイブ	-10.608
▁ケーキ	-10.6082
参	-10.6084
禁止	-10.6086
お揃い	-10.6086
よ笑	-10.6086
拝見	-10.6087
クオリティ	-10.6088
に行きます	-10.6088
ウチ	-10.6089
ii	-10.609
▁呼びタメ大歓迎なので	-10.609
くさん	-10.6098
のん	-10.61
🐺	-10.61
▁グッ	-10.6102
が欲しい	-10.6103
⸒⸒	-10.6103
いきなり	-10.6103
]	-10.6105
▁他の	-10.6105
お名前	-10.6108
ふふ	-10.6108
⊃	-10.6112
かなあ	-10.6113
🍀✨	-10.6114
認識	-10.6114
信じ	-10.6115
遅れて	-10.6117
毒	-10.6118
宜しくお願いいたします	-10.6122
をする	-10.6123
フォー	-10.6124
すべて	-10.6125
にしよう	-10.6126
いこうね	-10.6127
00	-10.613
🥹💓	-10.6131
フォロー失礼します	-10.6134
手作り	-10.6135
おいて	-10.6135
なさ	-10.6136
⛄	-10.6137
▁高	-10.6138
ツッコミ	-10.6139
揚げ	-10.6139
かもですね	-10.6143
チケ	-10.6144
残ってる	-10.6146
買いました	-10.6149
頭に	-10.6149
お気に入り	-10.6151
使え	-10.6152
✈️	-10.6153
記事	-10.6153
✩	-10.6154
部活	-10.6156
▁皆	-10.6157
cm	-10.6158
まくる	-10.6158
目の	-10.616
心を	-10.6161
むちゃん	-10.6162
到着	-10.6163
京	-10.6167
コース	-10.6168
ヨン	-10.6169
ついに	-10.6169
習	-10.6169
行ってみたい	-10.617
現金	-10.6174
かた	-10.6174
良かったですね	-10.6175
悪魔	-10.6175
▁N	-10.6176
栄養	-10.6177
▁そそ	-10.6178
▁no	-10.618
高め	-10.6183
TO	-10.6185
ですよー	-10.6188
明後日	-10.6188
向き	-10.619
ur	-10.6192
週末	-10.6192
九州	-10.6193
▁=͟͟͞͞	-10.6197
ダブル	-10.6197
メモメモ	-10.6198
たりする	-10.6199
ユー	-10.6199
かき	-10.6201
推して	-10.6201
界	-10.6202
ちゅー	-10.6203
この人	-10.6203
快	-10.6203
個人	-10.6203
♪♪	-10.6207
じゃないから	-10.6208
それぞれ	-10.621
ʕ	-10.621
皆んな	-10.6212
▁ド	-10.6213
スケ	-10.6214
ありです	-10.6214
ツリー	-10.6216
il	-10.622
フリ	-10.6224
))))	-10.6225
えええ	-10.6225
現	-10.6228
▁それも	-10.6234
ってことは	-10.6235
はどう	-10.6236
顔面	-10.6236
荒	-10.6238
特別	-10.624
使わない	-10.624
テル	-10.6242
アラ	-10.6243
wwwwwwwwwwwwwwww	-10.6243
大人しく	-10.6245
眼	-10.6245
嬉しくて	-10.6245
んでる	-10.6246
スパ	-10.6247
お餅	-10.6249
単	-10.625
日本の	-10.6251
┃	-10.6252
だろうな	-10.6253
90	-10.6254
(/	-10.6254
ヨロシク	-10.6254
▁本日	-10.6255
崎	-10.6255
💃	-10.6256
何回	-10.6258
半年	-10.626
▁後	-10.6262
さんを	-10.6262
ただいま	-10.6263
爪	-10.6263
リアタイ	-10.6264
見れない	-10.6266
キレ	-10.6266
球	-10.6269
▁ゆず	-10.6269
取った	-10.6272
しちゃいます	-10.6273
秘	-10.6277
ナデナデ	-10.6278
入院	-10.6281
カレンダー	-10.6283
幅	-10.6285
だいたい	-10.6287
現地	-10.6289
うちは	-10.6291
決めた	-10.6292
んだよな	-10.6293
やばかった	-10.6293
改	-10.6293
動物	-10.6294
空いて	-10.6299
感じで	-10.63
おさん	-10.63
レオ	-10.6304
未だに	-10.6307
くせに	-10.6309
来てる	-10.6312
居た	-10.6313
返して	-10.6315
▁全	-10.6317
シーズン	-10.6318
▁もも	-10.632
周りに	-10.6321
ロス	-10.6321
年前	-10.6323
喜ぶ	-10.6323
🍄	-10.6324
株	-10.6324
💯	-10.6324
きっかけ	-10.6326
▁͈́	-10.6328
🫶🫶🫶	-10.633
🙏💕	-10.6334
ho	-10.6335
゙	-10.6337
✧*。	-10.634
永遠に	-10.6341
気味	-10.6341
どうする	-10.6342
ほうが	-10.6342
やろー	-10.6343
評価	-10.6343
〃)	-10.6344
🍫	-10.6346
どこで	-10.6349
ステキな	-10.635
ついつい	-10.6352
うつ	-10.6352
ジョン	-10.6353
行こうね	-10.6353
なったら	-10.6354
ru	-10.6356
特典	-10.6357
かっ	-10.6359
ムリ	-10.636
恋愛	-10.6365
鳴	-10.6368
あったかい	-10.637
だけの	-10.6371
作るの	-10.6372
思考	-10.6373
,,	-10.6375
楽しませて	-10.6375
ランチ	-10.6378
▁#	-10.6379
ところに	-10.6382
そのうち	-10.6383
น	-10.6385
後は	-10.6386
▁超	-10.6386
旦那さん	-10.6386
ヴ	-10.6387
ウィ	-10.6391
ベッド	-10.6392
層	-10.6395
なんの	-10.6396
景色	-10.6397
文句	-10.6402
深夜	-10.6405
ゆい	-10.6409
エア	-10.6411
🤍🤍	-10.6411
▁生	-10.6412
⋆*	-10.6413
うわ	-10.6418
出来ました	-10.6419
炎	-10.642
固ツイ	-10.642
予感	-10.642
🤣👍	-10.6422
着いて	-10.6423
んだもん	-10.6423
好きで	-10.6423
70	-10.6424
コさん	-10.6424
▁ラ	-10.6429
離	-10.6434
マネ	-10.6435
交換して	-10.6436
▁昔	-10.6436
アリーナ	-10.6438
ッス	-10.6439
楽しくて	-10.6443
お声掛け	-10.6445
🥸	-10.6446
ワー	-10.645
るんだ	-10.6461
ホット	-10.6462
ケン	-10.6465
嬉しいね	-10.6468
▁うわー	-10.6468
熱い	-10.647
飲め	-10.647
乾燥	-10.6471
ござ	-10.6477
すごいです	-10.6478
おっぱい	-10.648
申し訳ないです	-10.6482
照	-10.6483
▁子供	-10.6483
ぴよ	-10.6484
リプ返	-10.6491
なりそう	-10.6492
うま	-10.6494
学生	-10.6495
ずつ	-10.6495
お礼	-10.6495
それに	-10.6497
散歩	-10.6501
お邪魔	-10.6503
メニュー	-10.6503
パーティー	-10.6503
実際	-10.6511
▁お金	-10.6512
だろうけど	-10.6513
[	-10.6516
まっ	-10.6516
始まる	-10.6517
できません	-10.6519
▁わあ	-10.6519
...??	-10.6519
以前	-10.6523
▁いいなぁ	-10.6524
˃̵	-10.6527
家事	-10.6528
🎄.*	-10.6528
素直に	-10.6531
どっか	-10.6531
になりますように	-10.6533
͈)”	-10.6533
てくる	-10.6533
やめた	-10.6533
だけどね	-10.6533
くださーい	-10.6534
もうちょっと	-10.6535
度に	-10.6542
▁やば	-10.6545
を感じる	-10.6545
てぇ	-10.6546
出たら	-10.6546
になってます	-10.6547
サイコー	-10.6548
孫	-10.6548
だけに	-10.6549
忘れる	-10.6551
せずに	-10.6552
😭😭😭😭😭	-10.6553
はしない	-10.6554
れい	-10.6556
ないといけない	-10.6557
子は	-10.6561
楽しみにして	-10.6564
スキ	-10.6571
必要な	-10.6572
ヨシヨシ	-10.6574
成人	-10.6576
▁天	-10.6578
最低	-10.6578
🗻	-10.6583
▁そんなこと	-10.6584
放置	-10.6586
〜🥺	-10.659
秒で	-10.659
▁お酒	-10.6591
ウッ	-10.6592
したこと	-10.6595
ロング	-10.6595
リプ欄	-10.6596
▁みー	-10.6596
▁ゲーム	-10.6599
人数	-10.66
舐め	-10.66
しときます	-10.6603
▁すぐ	-10.6604
続け	-10.6606
つぶ	-10.6606
飛行機	-10.6607
送った	-10.6611
たいと思います	-10.6611
くらいで	-10.6614
疲れて	-10.6614
精	-10.6615
WWW	-10.6616
ll	-10.6617
苦労	-10.6618
合ってる	-10.6619
▁しごおわ	-10.662
優しくて	-10.6622
くま	-10.6625
🥳🥳	-10.663
詐欺	-10.663
いただきます	-10.663
自然	-10.6631
の予定	-10.6633
わない	-10.6633
してしまいました	-10.6634
んかい	-10.6635
全身	-10.6637
定期	-10.664
違った	-10.6642
のかなぁ	-10.6644
当方	-10.6645
間違えた	-10.6651
▁楽しんで	-10.6653
話そ	-10.6655
真ん中	-10.6658
_(:3	-10.6659
成人式	-10.6661
りして	-10.6662
いろ	-10.6662
だよぉ	-10.6664
大変だ	-10.6665
見たかった	-10.6666
▁仲間	-10.6669
▁れい	-10.6671
ふぉ	-10.6673
戻って	-10.6676
▁自分が	-10.6677
きな	-10.668
あああああ	-10.668
お手	-10.6682
EN	-10.6682
どういう	-10.6684
▁最近は	-10.6686
▁お誕生日おめでとう	-10.6687
今回の	-10.6689
踏み	-10.669
声が	-10.6695
わざわざ	-10.6697
▁11	-10.6699
調べ	-10.67
たまたま	-10.67
に行った	-10.6701
頭が	-10.6702
iPhone	-10.6704
方の	-10.6704
いで	-10.6705
▁とっても	-10.6707
たべ	-10.6709
居て	-10.671
連番	-10.671
舌	-10.6711
あげた	-10.6713
謝	-10.6714
かけた	-10.6715
▁なぜ	-10.6716
めんどくさい	-10.6723
あぁ	-10.6723
🍙	-10.6724
ませんが	-10.6726
あると	-10.6727
共有	-10.6728
くださいませ	-10.6728
歩く	-10.6729
ですよねー	-10.6731
カップ	-10.6731
養	-10.6732
語彙力	-10.6732
▁あたし	-10.6733
便	-10.6733
と思ったけど	-10.6734
お姉ちゃん	-10.6735
▁頑張ります	-10.6735
`゚)゚。	-10.6737
刺激	-10.6739
収	-10.6741
?😂	-10.6744
では無い	-10.6746
まったく	-10.6747
おつあり	-10.6748
ケツ	-10.6749
空間	-10.6751
舞台	-10.6753
負けて	-10.6755
ゴー	-10.6756
きたよ	-10.6757
ダル	-10.676
ッツ	-10.676
霊	-10.6761
(°	-10.6762
の配信	-10.6762
尊い	-10.6765
ぁぁぁぁ	-10.6767
あた	-10.6767
アドバイス	-10.6767
ですけどね	-10.6768
痛み	-10.6769
°)	-10.6771
▁手	-10.6771
🚗	-10.6771
食べれる	-10.6774
祭	-10.6775
(*_	-10.6776
ピザ	-10.6777
IN	-10.678
キレイ	-10.6782
ジュン	-10.6782
😊😊😊	-10.6784
ダメージ	-10.6785
覚えてない	-10.6787
▁́罒	-10.6794
▁ヒ	-10.6794
喜び	-10.6796
～♪	-10.68
▁そしたら	-10.6803
ましたか	-10.6804
休む	-10.6805
応援してる	-10.6806
願い	-10.6808
見えて	-10.6809
衝撃	-10.6812
純	-10.6815
ありますよ	-10.6815
🐿	-10.6815
梅	-10.6815
親戚	-10.6815
ku	-10.6816
がすごい	-10.6817
ai	-10.6818
張り	-10.6818
パソコン	-10.6821
防	-10.6821
実質	-10.6823
いれば	-10.6823
▁year	-10.6823
▁頭	-10.6824
🏠	-10.6826
相手に	-10.6826
れてる	-10.6829
おおお	-10.683
対戦	-10.6833
言うて	-10.6834
▁ハイ	-10.6834
そうだね	-10.6836
方々	-10.684
▁ぜひ繋がりたいです	-10.6842
寝坊	-10.6843
本気	-10.6844
何卒	-10.6844
すと	-10.6845
ff	-10.6845
連れ	-10.6846
意外	-10.6846
⚡️	-10.6847
ちの	-10.6848
🙌🙌	-10.6849
カリ	-10.6853
まろ	-10.6853
善	-10.6854
求め	-10.6855
ᐠ	-10.6856
無視	-10.6858
ないかな	-10.686
▁ママ	-10.686
苦手な	-10.6864
▁最高の	-10.6867
なるべく	-10.6867
帰れ	-10.6868
明日の	-10.6869
━━━	-10.6869
と思っています	-10.6871
▁すごく	-10.6874
▁もー	-10.6877
▁`͈	-10.6878
好きなので	-10.6879
yu	-10.6879
ント	-10.6881
大吉	-10.6882
待ってるね	-10.6883
食べない	-10.6884
みつ	-10.6886
背景	-10.6889
必須	-10.6889
ヤン	-10.689
▁今年もたくさん	-10.6894
してたの	-10.6895
ばり	-10.6896
▁おう	-10.6897
数字	-10.6897
目指して	-10.6898
⸝	-10.69
ブロ	-10.69
引用	-10.69
🍛	-10.69
味噌	-10.6902
🎉✨	-10.6902
さんこんにちは	-10.6902
っぴ	-10.6905
可	-10.6908
納	-10.6908
らしいよ	-10.6908
財布	-10.6911
久々に	-10.6916
●	-10.6917
虎	-10.6918
サッカー	-10.6921
▁残念	-10.6921
許	-10.6926
🍞	-10.6929
コード	-10.6929
僕が	-10.693
ギャップ	-10.6936
ペコリ	-10.6936
⊂	-10.6941
з	-10.6941
じゃないけど	-10.6942
▁せ	-10.6943
為に	-10.6944
～😊	-10.6948
お寿司	-10.6951
カウントダウン	-10.6952
のせいで	-10.6954
地方	-10.6957
プレ	-10.6958
いても	-10.6959
ものです	-10.6961
気がして	-10.6961
さんには	-10.6961
la	-10.6962
日になりますように	-10.6962
ありがたいです	-10.6963
新規	-10.6966
憧れ	-10.6967
お待ち	-10.6968
▁む	-10.6969
クラス	-10.697
ますます	-10.6971
信じて	-10.6971
もうちょい	-10.6973
をありがとうございます	-10.6973
まるさん	-10.6975
区	-10.6975
寝れない	-10.6975
現在	-10.6976
載せ	-10.6976
🤭✨	-10.6978
ng	-10.6978
(◍	-10.6979
じゃなく	-10.6979
散	-10.6981
ページ	-10.6982
カップル	-10.6983
もらえた	-10.6986
👻	-10.6986
なーい	-10.6988
▁嬉しいです	-10.6992
▁やる	-10.6998
かわい	-10.7004
▁毎回	-10.7006
なさん	-10.7007
視	-10.7007
高校生	-10.7008
のない	-10.7008
🎂🎉	-10.7008
術	-10.7009
▁そうだよね	-10.7012
繋がりませんか	-10.7012
すね	-10.7014
家庭	-10.702
🐰🎍	-10.7023
▁誕生日	-10.7023
3000	-10.7024
▁あらら	-10.7025
いなかった	-10.7028
one	-10.7032
選んで	-10.7033
わちゃわちゃ	-10.7035
໒	-10.7035
理想	-10.7035
ええええ	-10.7037
考えると	-10.7037
あお	-10.7039
💪💪	-10.7039
に見える	-10.7039
ᴗᴗᴗ	-10.7041
インフル	-10.7042
原因	-10.7042
▁がち	-10.7043
CM	-10.7044
🐕	-10.7048
ペース	-10.7049
呼びタメ	-10.7049
助け	-10.7054
食べました	-10.7059
▁‘	-10.706
スタンプ	-10.7061
▁応援	-10.7061
🎉🎊	-10.7063
みかん	-10.7065
▁当たり前	-10.7067
見守って	-10.7072
▁おつありです	-10.7073
*゚	-10.7073
▁そら	-10.7073
(;;)	-10.7074
as	-10.7077
んでしょ	-10.7078
笑笑笑	-10.708
▁流石	-10.7081
待つ	-10.7082
▁コ	-10.7084
かく	-10.7085
呼ぶ	-10.7088
▁ヤ	-10.7091
君は	-10.7091
元旦	-10.7091
バル	-10.7092
なりたい	-10.7094
可愛さ	-10.7095
▁れ	-10.7096
がんば	-10.7096
おしゃれ	-10.7096
だす	-10.7098
津	-10.7098
、、?	-10.7098
したいな	-10.7099
まき	-10.7102
ぼちぼち	-10.7109
▁シ	-10.711
もったいない	-10.7114
してる人	-10.7115
▁まな	-10.7115
最高ですね	-10.7117
待て	-10.7119
よりは	-10.712
🤧	-10.7122
任せて	-10.7123
絡みたい	-10.7125
かり	-10.7127
知った	-10.7127
鏡	-10.7129
ゆっくり休んでね	-10.713
さんおはよー	-10.7134
きゅん	-10.7135
((((	-10.7135
時間も	-10.7136
▁次回	-10.7137
されるの	-10.7138
久	-10.7139
かま	-10.7139
言われ	-10.7141
分けて	-10.7141
̀	-10.7142
匂い	-10.7142
▁まり	-10.7144
が好きです	-10.7145
ガッツリ	-10.7148
重要	-10.7149
仕事が	-10.7152
▁もちろんです	-10.7152
可能	-10.7153
アルバム	-10.7154
も一緒に	-10.7154
と共に	-10.7156
たろ	-10.7157
勝つ	-10.7158
密	-10.7159
オタ	-10.716
去	-10.7161
◉	-10.7163
みようかな	-10.7165
比べ	-10.7169
腐	-10.7169
😉✨	-10.717
▁今年もよろしくお願い致します	-10.7171
見てみたい	-10.7171
悩んで	-10.7174
シャン	-10.7174
大変そう	-10.7175
ポケ	-10.7175
行きたいです	-10.7179
調	-10.7182
死ぬほど	-10.7182
▁𓈒𓏸	-10.7183
気持ちで	-10.7184
負けた	-10.7185
だったわ	-10.7187
▁今年もよろしくです	-10.719
🙇🏻	-10.719
となります	-10.719
すの	-10.7191
▁」∠)_	-10.7193
るやつ	-10.7195
▁*ˊ	-10.7197
^*)	-10.7197
オープン	-10.7199
オイ	-10.7199
ふたり	-10.72
レー	-10.7201
正しい	-10.7201
ギター	-10.7202
アイテム	-10.7204
一旦	-10.7205
・`	-10.7207
ワーク	-10.721
〜🎶	-10.7212
ぜひ仲良くしてください	-10.7213
美味しいよね	-10.7213
待ってて	-10.7214
スーツ	-10.7215
受け取り	-10.7217
˂̵)	-10.7217
狙って	-10.7218
🐴	-10.722
らさん	-10.722
大好きだよ	-10.7224
しか勝たん	-10.7225
のかも	-10.7225
▁あけ	-10.7226
くれてありがと	-10.7227
志	-10.7229
年始	-10.7229
きれい	-10.723
ぼく	-10.723
🤞	-10.723
寒かった	-10.723
こんな感じ	-10.7233
がいっぱい	-10.7233
一年になりますように	-10.7234
浮気	-10.7236
月曜日	-10.7236
引退	-10.7237
▁ˇ	-10.7238
さくら	-10.7241
力を	-10.7241
ボタン	-10.7243
言葉を	-10.7246
▁素敵	-10.7247
ke	-10.7249
🥲🥲🥲	-10.7249
フッ	-10.7249
最高だった	-10.7249
▁熱	-10.725
▁お迎え	-10.725
男の子	-10.7251
に出	-10.7253
̥	-10.7254
になるから	-10.7255
わかりません	-10.7256
エヘヘ	-10.7258
だったのね	-10.7259
始まって	-10.726
頑張っていきましょう	-10.7262
岩	-10.7272
引け	-10.7273
💕✨	-10.7275
▁最後の	-10.7276
どれも	-10.7278
いいと思う	-10.7279
読んだ	-10.7279
⊂(	-10.728
の問題	-10.7281
さんにとって	-10.7282
やり方	-10.7282
スン	-10.7282
✿	-10.7283
すげぇ	-10.7284
ようになって	-10.7284
支え	-10.7285
似て	-10.7285
含め	-10.7287
お願いしたいです	-10.7288
ぉぉぉ	-10.7288
いれ	-10.7289
期待して	-10.7289
冊	-10.7289
レース	-10.7292
にゃー	-10.7293
日本人	-10.7293
▁こちらは	-10.7294
ヨシ	-10.7294
脳内	-10.7295
手術	-10.7296
勝った	-10.7297
どころ	-10.7299
▁つまり	-10.73
七	-10.73
行くよ	-10.73
▁お互いに	-10.7301
ネイル	-10.7301
くさ	-10.7304
飾り	-10.7308
🤔🤔🤔	-10.7309
お布団	-10.731
お父さん	-10.731
よなぁ	-10.731
荒野	-10.7311
の方も	-10.7311
みよう	-10.7311
こた	-10.7311
だったか	-10.7313
蔵	-10.7313
すい	-10.7314
しないように	-10.7315
わりと	-10.7315
🍠	-10.7316
頼んだ	-10.7318
▁わかった	-10.7319
▁ぐ	-10.732
広島	-10.732
お家	-10.7322
キモ	-10.7322
岡	-10.7323
ぅぅ	-10.7328
桁	-10.733
最近は	-10.733
間違え	-10.7332
もらいたい	-10.7332
出演	-10.7333
させて頂きました	-10.7334
動いて	-10.7336
会え	-10.7337
リーダー	-10.7339
お声がけ	-10.7339
当然	-10.7339
TV	-10.7344
ut	-10.7345
▁Xmas	-10.7345
良いお年をお迎えください	-10.7345
...😢	-10.7346
謎の	-10.7357
とした	-10.7359
にぃ	-10.736
こっ	-10.736
ホー	-10.7363
話を	-10.7364
タオル	-10.7365
ハード	-10.7368
走る	-10.7369
あさん	-10.7369
飲んでる	-10.7369
っしょ	-10.7372
眠れ	-10.7373
⇔	-10.7373
ad	-10.7373
いつの間にか	-10.7374
韓国	-10.7374
固	-10.7375
るちゃん	-10.7376
▁はやく	-10.7376
日も	-10.7377
旧	-10.7381
同じこと	-10.7381
▁とも	-10.7382
おや	-10.7382
スピード	-10.7383
しすぎ	-10.7384
言えば	-10.7385
そこは	-10.7392
みんなの	-10.7392
確保	-10.7395
みたいな感じ	-10.7396
遅刻	-10.7397
聞かせて	-10.7401
▁お疲れさまでした	-10.7403
💓💓💓	-10.7403
▁美	-10.7404
プロフ	-10.7404
45	-10.7406
かったです	-10.7406
長男	-10.7407
美味しいもの	-10.7409
お時間	-10.7411
充電	-10.7411
装備	-10.7411
と思いますよ	-10.7411
おりました	-10.7415
意見	-10.7415
▁来年はもっと	-10.7416
▁おはよう御座います	-10.7416
仕事で	-10.742
推	-10.742
かず	-10.7421
も同じ	-10.7421
ワロタ	-10.7422
やるの	-10.7423
といて	-10.7425
せめて	-10.7429
=͟͟͞͞	-10.7431
増	-10.7432
なっちゃう	-10.7433
💕︎	-10.7433
乗る	-10.7434
我が家	-10.7436
▁d	-10.7437
ログイン	-10.7438
るだけ	-10.7439
めっちゃ好き	-10.7439
勤務	-10.7441
▁シャ	-10.7444
すこ	-10.7444
🐧	-10.7449
てしまう	-10.745
▁́д	-10.745
体が	-10.7451
ヘア	-10.7451
記憶が	-10.7453
🍮	-10.7454
▁また来年も	-10.7458
コメ	-10.7463
遊ぼう	-10.7463
待ってるよ	-10.7465
豚	-10.747
～🥰	-10.747
しつつ	-10.7471
この子	-10.7471
□	-10.7472
けい	-10.7475
まつ	-10.7475
ol	-10.7475
╮	-10.7476
ナカーマ	-10.7476
いつまでも	-10.7477
だと思ってた	-10.7478
頑張りましょ	-10.7478
🍋	-10.7479
の準備	-10.7479
▁春	-10.7484
だねぇ	-10.7486
ꈍ	-10.7487
▁えらい	-10.7488
わかり	-10.7488
♡⃛	-10.7489
できるように	-10.7489
否定	-10.749
いらっしゃる	-10.7493
外出	-10.7494
▁🐰	-10.7496
突き	-10.7496
写	-10.75
☘️	-10.7501
▁もうすぐ	-10.7501
礼	-10.7504
しておきます	-10.7505
ya	-10.7506
あんなに	-10.7506
バリ	-10.7507
乃	-10.7508
劇	-10.7509
カワ	-10.751
気をつけます	-10.7512
来てくれて	-10.7516
全体	-10.7519
リスイン	-10.7519
の言葉	-10.7523
ちゃい	-10.7524
▁そうですよね	-10.7525
▁とにかく	-10.7525
(;_;)	-10.7525
今年もどうぞよろしくお願いします	-10.7526
▁もう少し	-10.7526
᷅	-10.7526
▁じゃ	-10.7529
ショート	-10.7531
気温	-10.7531
じさん	-10.7531
出来なかった	-10.7531
力が	-10.7533
ぬくぬく	-10.7534
見れた	-10.7535
こたつ	-10.7539
▁どうぞ	-10.7539
落とし	-10.754
︎👍🏻	-10.7541
💓💞	-10.7541
ニア	-10.7544
かわいくて	-10.7544
とはいえ	-10.7545
その時は	-10.7546
▁インスタ	-10.7548
分くらい	-10.7549
校	-10.755
◝)	-10.7551
可愛すぎ	-10.7551
なぜか	-10.7553
敬語	-10.7554
ちょっとだけ	-10.7554
🐑	-10.7556
オレンジ	-10.7558
∇	-10.7558
してもらって	-10.7562
てよかった	-10.7562
ce	-10.7562
▁楽しかった	-10.7564
小さな	-10.7565
もっともっと	-10.7568
ジャンプ	-10.7569
今度は	-10.7569
潜	-10.7571
いな	-10.7572
違います	-10.7572
スケジュール	-10.7572
したいですね	-10.7573
ャ	-10.7573
くじ	-10.7575
宜しく	-10.7575
回も	-10.7576
(⋆	-10.7576
▁誤反応でなければ繋がりませんか	-10.7577
塾	-10.7578
(*`・	-10.7578
いてる	-10.7578
来てください	-10.7579
▁しん	-10.7581
洋	-10.7582
すっごく	-10.7584
消えて	-10.759
参加して	-10.7591
up	-10.7596
NA	-10.7596
我々	-10.7597
全力	-10.7597
信頼	-10.7597
is	-10.7598
ca	-10.7598
▁今回の	-10.7598
の誕生日	-10.76
のでしょうか	-10.7605
⌓	-10.7605
いさん	-10.7608
おにぎり	-10.7608
私を	-10.761
目線	-10.7611
▁そっち	-10.7615
じー	-10.7619
陣	-10.7619
酔い	-10.7619
チュー	-10.7619
続	-10.762
買	-10.7623
ウム	-10.7624
萌え	-10.7627
上がった	-10.7628
消費	-10.7628
超え	-10.7631
立って	-10.7632
アアア	-10.7633
げん	-10.7635
さんにも	-10.7636
́	-10.7637
需要	-10.7639
観た	-10.7639
これからもよろしくね	-10.7641
😶	-10.7641
電気	-10.7642
▁まさに	-10.7642
そうか	-10.7643
なかったの	-10.7643
(*•̀	-10.7646
けっこう	-10.7647
かなって	-10.7649
ライフ	-10.7652
時も	-10.7655
サウナ	-10.7658
▁それなら	-10.7659
ねこ	-10.766
動か	-10.7665
ございました	-10.7666
(^_^;)	-10.7667
娘が	-10.7668
ネー	-10.7669
▁ねこ	-10.7672
合格	-10.7673
外で	-10.7673
요	-10.7675
っちゃいました	-10.7675
雄	-10.7677
落ちる	-10.7678
▁マジか	-10.768
中国	-10.7683
必死	-10.7693
▁⁠	-10.7694
ダメだ	-10.7694
寒くて	-10.7695
よければ	-10.7695
赤い	-10.7697
まさん	-10.7697
かっこよかった	-10.7699
反応ありがとうございます	-10.7701
アス	-10.7701
nd	-10.7702
▁︎	-10.7703
のかしら	-10.7706
お兄さん	-10.7707
あるんだ	-10.7707
いいか	-10.7708
流石	-10.7709
かせて	-10.771
樹	-10.7711
せー	-10.7711
言われたら	-10.7714
車で	-10.7715
▁さと	-10.7715
が来る	-10.7717
▁良き	-10.7717
筆	-10.7718
▁ふふふ	-10.772
🫠🫠🫠	-10.772
程度	-10.772
▁冬	-10.7721
じぇ	-10.7721
板	-10.7722
シア	-10.7723
笑いました	-10.7726
相方	-10.7729
影響	-10.7729
禁	-10.773
噂	-10.7731
新たな	-10.7731
濃い	-10.7732
そうなる	-10.7733
⁠)	-10.7733
叫び	-10.7734
▁青	-10.7734
エビ	-10.7737
あまりにも	-10.7738
分かりません	-10.7739
モデル	-10.7739
るぞ	-10.774
陽性	-10.774
以下	-10.7741
食欲	-10.7741
▁あまり	-10.7743
推しが	-10.7744
˶)	-10.7744
▁頑張る	-10.7746
ok	-10.7746
▁まる	-10.7747
お互いに	-10.7747
バッチリ	-10.7748
前は	-10.7749
あけおめー	-10.7749
▁酒	-10.7752
セブン	-10.7753
司	-10.7753
おやつ	-10.7754
セクシー	-10.7759
相手の	-10.7759
見られる	-10.7762
サッ	-10.7762
どころか	-10.7764
でござる	-10.7765
ーーーーーー	-10.7766
了解	-10.7768
くれたの	-10.7771
FC	-10.7771
▁来週	-10.7771
札	-10.7773
ふぁ	-10.7779
可愛いから	-10.778
やま	-10.778
増え	-10.778
キツい	-10.778
ガンバ	-10.7781
ふり	-10.7781
爆睡	-10.7784
紅	-10.7785
集めて	-10.7785
ある程度	-10.7788
ろん	-10.7788
勝利	-10.7789
談	-10.779
▁急に	-10.779
行けたら	-10.7792
減	-10.7792
気合い	-10.7794
最初に	-10.7796
が高い	-10.7802
いつまで	-10.7803
ソース	-10.7805
宜しくね	-10.7805
ようやく	-10.7806
▁15	-10.7806
観る	-10.7808
やってみる	-10.7809
に関しては	-10.7809
いいんですか	-10.7809
すっごい	-10.7809
▁"	-10.7811
行けば	-10.7812
しば	-10.7812
奈	-10.7814
おめでとうございます祝️	-10.7816
午前中	-10.7817
しといて	-10.782
レイド	-10.782
パート	-10.7822
がたくさん	-10.7823
▁本年もよろしくお願いします	-10.7825
戦い	-10.7827
年後	-10.7829
🐏	-10.7829
▁それでは	-10.7832
te	-10.7832
🤗✨	-10.7832
mas	-10.7832
試験	-10.7835
依頼	-10.7835
▁把握	-10.7835
▁sa	-10.7839
布	-10.7839
れたら	-10.784
いちご	-10.7842
苦しい	-10.7842
勝てる	-10.7843
偶然	-10.7843
┏	-10.7844
配信で	-10.7847
〜☀️	-10.7853
▁息子	-10.7855
～☺️	-10.7861
ニョ	-10.7861
差し	-10.7861
いこー	-10.7861
クッキー	-10.7861
貼って	-10.7862
▁チョコ	-10.7862
武道館	-10.7863
提供	-10.7863
困った	-10.7863
合わない	-10.7864
冷	-10.7867
にお	-10.7869
NO	-10.787
ップ	-10.7871
んど	-10.7872
ツイッター	-10.7872
......!!	-10.7874
🌀	-10.7874
かったら	-10.7874
られます	-10.7876
案	-10.7877
見てます	-10.7877
警察	-10.7877
略	-10.7878
アッ	-10.788
考えてる	-10.788
に入る	-10.7881
今でも	-10.7881
良いですよね	-10.7882
❀	-10.7883
アメリカ	-10.7883
どちら	-10.7884
ヲ	-10.7884
!!!!!!!!!!	-10.7885
学び	-10.7886
だからこそ	-10.7887
💪(	-10.7891
日程	-10.7891
クン	-10.7892
▁無	-10.7892
▁いっ	-10.7897
it	-10.7897
例	-10.7897
恐ろしい	-10.7898
細かい	-10.7899
見てたら	-10.7902
解除	-10.7905
こちらから	-10.7905
望	-10.7909
嵐	-10.7914
っ子	-10.7916
平日	-10.7917
並	-10.7918
ファー	-10.7918
なのが	-10.7918
泊	-10.7918
帰	-10.7919
上で	-10.7921
▁やったぁ	-10.7922
甘え	-10.7924
😳😳😳	-10.7924
あるかも	-10.7925
発売	-10.7925
会えますように	-10.7925
▁うそ	-10.7926
(*'	-10.7929
荒れ	-10.793
技術	-10.7932
デン	-10.7932
なんとなく	-10.7932
フォローさせていただきました	-10.7934
▁よろしくお願いいたします	-10.7935
たね	-10.7938
お花	-10.7941
いただけて	-10.7942
元々	-10.7943
自慢	-10.7946
▁あはは	-10.7946
わかってる	-10.7947
キリッ	-10.7952
まう	-10.7954
▁まず	-10.7956
んよな	-10.7957
(≧▽≦)	-10.7958
るかも	-10.7962
私達	-10.7969
༥	-10.7969
したのに	-10.797
授業	-10.7972
🔔	-10.7975
味が	-10.7976
お得	-10.7977
ベース	-10.7978
介	-10.798
可愛いし	-10.798
剤	-10.798
の色	-10.798
金額	-10.7983
いいのに	-10.7984
🤲🏻	-10.7986
すな	-10.7986
▁ˆ	-10.7987
某	-10.7989
食う	-10.7989
ふわふわ	-10.799
▁ha	-10.7991
おおおおお	-10.7991
決	-10.7991
ダイヤ	-10.7991
▁参加	-10.7992
ウル	-10.7994
愛知	-10.7999
放題	-10.8
ニコ	-10.8004
もらいます	-10.8005
皿	-10.8006
🤤🤤🤤	-10.8009
多かった	-10.8011
ちび	-10.8012
何で	-10.8012
ようかな	-10.8013
ようね	-10.8013
分で	-10.8016
▁色んな	-10.8017
ぅー	-10.8017
おもしろい	-10.8018
ダラダラ	-10.8018
▁Y	-10.8018
過ぎた	-10.8018
カバー	-10.8019
楽しみすぎる	-10.8021
▁お腹	-10.8023
巡り	-10.8023
day	-10.8024
SA	-10.8025
イライラ	-10.8025
ちょこ	-10.8029
あったけど	-10.8029
▁こっち	-10.803
親子	-10.8032
▁that	-10.8032
良かったよ	-10.8032
ララ	-10.8033
hi	-10.8033
エペ	-10.8034
っきー	-10.8034
きてね	-10.8036
もしくは	-10.8038
進め	-10.8039
住	-10.804
とん	-10.8041
迷子	-10.8045
⁠)⁠	-10.8045
▁大丈夫です	-10.8046
くれて嬉しい	-10.8047
小学生	-10.8048
出来ます	-10.8049
▁すご	-10.8051
刀	-10.8052
幸せに	-10.8057
してきました	-10.8057
テテ	-10.8058
ちぇ	-10.806
交	-10.806
しましょうね	-10.806
みんなが	-10.8061
メンション	-10.8062
めっちゃ嬉しい	-10.8063
くなりました	-10.8064
▁Σ	-10.8065
たこと	-10.8066
人には	-10.8066
😳😳	-10.8068
くね	-10.8068
▁おやすみー	-10.8069
陰	-10.807
歌い	-10.8071
船	-10.8071
↑	-10.8077
隠	-10.8077
つけた	-10.8079
カウコン	-10.8081
🙋🏻‍♀️	-10.8082
自由に	-10.8085
▁うっ	-10.8085
今月	-10.8086
▁意外と	-10.8087
遊べる	-10.8088
されます	-10.809
夜更かし	-10.809
周	-10.8092
😜	-10.8093
届け	-10.8095
麻雀	-10.8096
ココ	-10.8099
痩せ	-10.8102
冗談	-10.8102
わんちゃん	-10.8102
オーバー	-10.8103
んじゃないかな	-10.8105
老	-10.8106
ルー	-10.8109
頑張れる	-10.811
作ろう	-10.8114
やさん	-10.8117
▁よろしくお願い致します	-10.8118
▁もはや	-10.8118
税	-10.812
消え	-10.8123
▁٩	-10.8124
同い年	-10.8124
思いました	-10.8124
お誘い	-10.8125
ご検討	-10.813
🦐	-10.8134
まんま	-10.8135
__	-10.8135
会お	-10.8138
調べたら	-10.814
負	-10.8144
どれだけ	-10.8147
出会って	-10.815
・∀・)	-10.8151
渋谷	-10.8151
やつだ	-10.8153
選	-10.8154
▁せめて	-10.8155
ネギ	-10.8157
ですので	-10.8163
ir	-10.8164
間に合う	-10.8165
っすか	-10.8165
源	-10.8166
スイ	-10.8166
ありがとうー	-10.8166
回し	-10.8171
作りたい	-10.8172
改善	-10.8172
んやで	-10.8172
自転車	-10.8175
はる	-10.8177
👌🏻	-10.8177
寝れ	-10.8179
🥹❤️	-10.818
の前で	-10.8183
会いたかった	-10.8183
無理なく	-10.8186
▁今年も宜しくお願い致します	-10.8187
思	-10.819
開く	-10.819
順	-10.819
詳しく	-10.8192
反対	-10.8192
スッ	-10.8193
任	-10.8194
🥹🫶🏻	-10.8194
蕎麦	-10.8195
希	-10.8195
沢山の	-10.8196
🤭🤭	-10.8198
いけます	-10.82
連続	-10.8202
やれる	-10.8207
贅沢	-10.8207
▁どの	-10.8209
人たち	-10.8209
来てくれた	-10.8209
Amazon	-10.821
竹	-10.821
くるの	-10.821
漢字	-10.821
好きだよ	-10.8212
強かった	-10.8218
驚き	-10.822
ぇぇ	-10.822
気付いて	-10.822
かわいいよね	-10.8222
日本酒	-10.8222
兎	-10.8224
活躍	-10.8225
都	-10.8226
使	-10.8227
かって	-10.8227
᎑	-10.8228
▁́『`*)	-10.8228
夜に	-10.8228
引いた	-10.8231
▁本日もよろしくお願いします	-10.8232
あえて	-10.8233
▁来年の	-10.8234
館	-10.8234
かお	-10.8235
二度寝	-10.8235
ギュ	-10.8235
ひら	-10.8237
育成	-10.8237
周回	-10.8238
弁	-10.8238
選び	-10.8238
ु	-10.8239
相変わらず	-10.824
着く	-10.824
食って	-10.824
聴	-10.8241
買わない	-10.8241
証拠	-10.8242
可愛いですよね	-10.8243
やりました	-10.8247
ミルク	-10.8247
っぽ	-10.8248
まかせ	-10.8249
▁真	-10.8253
▁ユ	-10.8253
みんなと	-10.8254
たった	-10.8256
もあります	-10.8257
🥳✨	-10.8257
小説	-10.8259
会場で	-10.8261
きれ	-10.8261
来月	-10.8262
〜〜!!	-10.8263
射	-10.8264
パーティ	-10.8265
!?!?!?	-10.8266
▁ロ	-10.8268
リプで	-10.827
兄貴	-10.8273
縮	-10.8274
おち	-10.8276
ぼう	-10.8276
▁呼び方	-10.8279
ぺん	-10.8281
▁夏	-10.8281
vi	-10.8283
丼	-10.8283
回す	-10.8283
めー	-10.8285
ع	-10.8287
いくらでも	-10.8289
院	-10.829
▁こっちは	-10.8291
桃	-10.8295
絵柄	-10.8295
認知	-10.8296
▁あんまり	-10.8297
有名	-10.8298
遊	-10.8302
▁ですです	-10.8303
出来れば	-10.8304
の下	-10.8307
しますよ	-10.8307
わけじゃない	-10.8308
だったんだ	-10.8309
食べます	-10.831
じっくり	-10.831
▁はっ	-10.8311
野良	-10.8312
ご家族	-10.8314
暴れ	-10.8314
美味しいですよね	-10.8315
今後も	-10.8315
残る	-10.8317
(゚∀゚)	-10.8317
ソフト	-10.8318
くらいしか	-10.8318
行くか	-10.8321
行けて	-10.8323
▁まゆ	-10.8324
くだ	-10.8324
少しだけ	-10.8324
してたけど	-10.8327
いたの	-10.8328
にしか	-10.8328
砂	-10.8328
前髪	-10.8328
族	-10.8331
▁さぁ	-10.8332
にく	-10.8333
したいと思います	-10.8335
昔から	-10.8338
発送	-10.834
スキー	-10.834
400	-10.8342
飲みたい	-10.8342
するぞ	-10.8343
心地	-10.8345
▁̆*)	-10.8347
┓	-10.8348
雪が	-10.8351
緩	-10.8351
会社の	-10.8352
声で	-10.8353
になりますね	-10.8355
われ	-10.8355
宇宙	-10.8361
〜〜〜〜	-10.8363
裸	-10.8365
個人的に	-10.8367
選択肢	-10.8367
新年会	-10.8367
悲し	-10.8368
顔を	-10.8368
おかげで	-10.8369
👹	-10.837
コーデ	-10.8372
タコ	-10.8373
▁こういう	-10.8375
乙	-10.8377
かかった	-10.8378
お洋服	-10.8385
▁いやぁ	-10.8385
やっ	-10.8385
宝	-10.8386
🥳🥳🥳	-10.8387
削	-10.8388
▁たまには	-10.8389
くれる人	-10.839
🙌🙌🙌	-10.839
たて	-10.8391
▁嘘	-10.8392
トレカ	-10.8393
置	-10.8393
セイ	-10.8393
▁ᐡ	-10.8393
が強い	-10.8394
お弁当	-10.8395
食べたら	-10.8398
もたくさん	-10.8399
▁そうか	-10.84
"(∩	-10.8402
昼間	-10.8404
後輩	-10.8405
狂	-10.8408
かあ	-10.8409
;∩)"	-10.8412
システム	-10.8412
状態で	-10.8412
ルーム	-10.8417
KA	-10.8417
🐢	-10.8418
てるの	-10.8418
▁最後	-10.8419
用意して	-10.842
のおかげ	-10.842
!!️!!️!!️!!️	-10.842
食べれ	-10.8422
再開	-10.8422
買おう	-10.8423
▁しぬ	-10.8424
愚痴	-10.8424
気持ちを	-10.8424
えぇ	-10.8425
也	-10.8425
お部屋	-10.8426
来年の	-10.8426
楽しいです	-10.8426
遅れ	-10.843
するなら	-10.8434
ライブで	-10.8436
夢を	-10.8439
伝わって	-10.844
製	-10.8444
▁ふふ	-10.8451
▁あんな	-10.8454
落ち着いたら	-10.8455
😎✨	-10.8458
帰ります	-10.846
さんおはあり	-10.8462
もふもふ	-10.8463
▁くろ	-10.8464
≦)	-10.8464
ga	-10.8465
▁リアル	-10.8465
自覚	-10.8466
凛	-10.8469
サークル	-10.8473
▁えええ	-10.8475
複数	-10.8475
してみます	-10.8476
イッ	-10.8476
かわいいね	-10.8477
楽しもう	-10.8478
歴	-10.8478
様子	-10.8479
▁パ	-10.8483
Thank	-10.8483
除	-10.8488
楽しみだ	-10.849
ジャー	-10.849
▁懐かしい	-10.8494
ばい	-10.8494
コミケ	-10.8496
🤚	-10.8502
▁my	-10.8503
🥺💓	-10.8505
明るく	-10.8505
トゥ	-10.8506
っつ	-10.8507
今すぐ	-10.8507
するけど	-10.8511
見たことない	-10.8514
無くて	-10.8514
いそう	-10.8515
ポテト	-10.8515
経	-10.8517
⊙	-10.8517
されない	-10.8518
ワァ	-10.8519
描きたい	-10.852
アミ	-10.8523
買います	-10.8524
たのし	-10.8526
作ってる	-10.8526
っちょ	-10.8526
😱😱😱	-10.8527
▁アン	-10.8528
くなります	-10.8528
なしで	-10.8528
できてない	-10.853
仲良い	-10.8531
ないんだけど	-10.8531
会いましょう	-10.8532
面白そう	-10.8533
ショップ	-10.8533
企業	-10.8536
‍	-10.8539
気のせい	-10.8539
▁家族	-10.854
その辺	-10.8541
ч	-10.8546
があると	-10.8547
があったら	-10.8547
どっちか	-10.8548
ピアノ	-10.855
シール	-10.8551
仙台	-10.8551
カニ	-10.8553
▁あたしも	-10.8554
もり	-10.8555
支援	-10.8557
分から	-10.8557
よいお年を	-10.8558
▁ないす	-10.8559
んだよなぁ	-10.856
絶望	-10.856
RI	-10.8564
別れ	-10.8567
ガンガン	-10.8567
用に	-10.8568
麻	-10.8568
そういうこと	-10.8569
🍡	-10.8569
足り	-10.8574
になりそうです	-10.8575
▁無理せず	-10.8575
有難う	-10.8576
ふく	-10.8577
🍅	-10.8578
sa	-10.8579
あざ	-10.8582
▁海	-10.8584
do	-10.8586
溶け	-10.8587
離れ	-10.8588
急いで	-10.8589
さき	-10.8592
▁かしこまりました	-10.8593
͈	-10.8594
触れ	-10.8595
月は	-10.8596
込	-10.8597
バニー	-10.8597
定期的に	-10.8598
みな	-10.8599
上が	-10.8601
そこそこ	-10.8601
って感じです	-10.8601
務	-10.8605
来てくれてありがとう	-10.8607
練	-10.8608
永	-10.8612
すっかり	-10.8613
の手	-10.8614
▁なるほどね	-10.8614
来い	-10.8615
号泣	-10.8616
へへ	-10.8616
保険	-10.8618
▁アイ	-10.8624
▁すず	-10.8624
🫂	-10.8624
色の	-10.8629
🏃	-10.863
おっさん	-10.8631
シェ	-10.8632
いいです	-10.8633
可愛いね	-10.8637
えび	-10.8637
▁年越し	-10.8639
鈴	-10.8639
番号	-10.864
クリスマスイブ	-10.8641
▁がんばる	-10.8643
ti	-10.8643
在庫	-10.8644
いわ	-10.8644
😂💕	-10.8644
売れ	-10.8645
○○	-10.8647
の為	-10.8647
降って	-10.8652
行こうかな	-10.8653
本日も	-10.8654
広い	-10.8655
ーーーん	-10.8655
戦争	-10.8655
の力	-10.8657
だよな	-10.8657
▁•̥	-10.8657
▁あお	-10.8657
衣	-10.8657
いいなー	-10.8659
汚	-10.866
id	-10.8661
トナカイ	-10.8661
隠し	-10.8664
ぶら	-10.8664
話せて	-10.8666
一歩	-10.8667
給料	-10.8667
下がって	-10.8668
ばぶ	-10.8668
時間くらい	-10.8669
採用	-10.8673
おみくじ	-10.8673
▁しばらく	-10.8674
いん	-10.8675
の人が	-10.8678
会えない	-10.8679
年を	-10.8679
事件	-10.8681
みてください	-10.8687
買取	-10.8688
声かけて	-10.869
しようか	-10.8691
あけおめことよろ	-10.8691
いちばん	-10.8693
ニャン	-10.8696
と思ってました	-10.8697
▁́^	-10.8697
▁アル	-10.8697
んじゃう	-10.8698
微	-10.8698
ロリ	-10.8699
出せる	-10.87
恐怖	-10.8702
)"	-10.8703
あけおめです	-10.8704
ユニ	-10.8705
😁✨	-10.8706
みき	-10.8707
ヴァ	-10.8707
になっても	-10.8708
かわからない	-10.8708
さに	-10.8708
行か	-10.8708
▁バ	-10.8711
思いっきり	-10.8714
聴く	-10.8715
ゴロゴロ	-10.8716
▁山	-10.8717
ところです	-10.8717
いかん	-10.8718
スー	-10.8719
将来	-10.872
コンプ	-10.8723
▁どー	-10.8724
一個	-10.8725
▁24	-10.8725
スタッフ	-10.8726
◡	-10.8731
▁休み	-10.8732
濃	-10.8733
に期待	-10.8733
れー	-10.8734
▁̇˶	-10.8737
変えた	-10.8742
あう	-10.8744
ぬいぐるみ	-10.8744
💔	-10.8744
▁はや	-10.8747
飛ぶ	-10.8752
TikTok	-10.8754
トマト	-10.8754
なにも	-10.8754
頂きます	-10.8755
かもしれないけど	-10.8756
しぃ	-10.8756
られたら	-10.8757
ちゃんありがと	-10.8759
ナさん	-10.8761
怪しい	-10.8761
▁re	-10.8762
しょー	-10.8762
吸い	-10.8763
っすよ	-10.8763
回数	-10.8764
▁そうなのよ	-10.8765
ぉー	-10.8767
在	-10.8769
エリ	-10.877
MV	-10.8771
できん	-10.8771
はずなのに	-10.8773
▁ε	-10.8776
どこか	-10.8777
問題ない	-10.8777
蓮	-10.8778
を見る	-10.8779
再生	-10.8783
軽い	-10.8783
▁RT	-10.8783
💰	-10.8784
ペコ	-10.8785
行く予定	-10.8785
がありました	-10.8787
がんばろー	-10.8787
▁良かったら	-10.8789
リアルで	-10.8789
横浜	-10.8789
しませんか	-10.879
なにより	-10.8793
おそ	-10.8794
の流れ	-10.8794
ほうがいい	-10.8795
▁まっ	-10.8796
ターン	-10.8796
くなってきた	-10.8796
▁北海道	-10.8798
なな	-10.8798
▁良ければ	-10.8798
タバコ	-10.8799
ささ	-10.8801
🎉🎂	-10.8803
ディスコ	-10.8803
追	-10.8804
ボク	-10.8806
生で	-10.8806
貰えて	-10.8806
🏽	-10.8809
ちゃー	-10.8809
▁そうだ	-10.8809
▁天才	-10.8811
婚	-10.8811
新作	-10.8812
実際に	-10.8812
〜😅	-10.8813
労働	-10.8815
ーっと	-10.8816
〜🤗	-10.8817
整	-10.8817
気に入って	-10.8817
眺めて	-10.8818
って言ったら	-10.8819
▁他	-10.8819
▁実際	-10.8819
余計に	-10.882
▁よかったら	-10.882
なんだから	-10.8822
映	-10.8823
▁大掃除	-10.8825
自身	-10.8825
ू	-10.8825
▁ありゃ	-10.8825
新年早々	-10.8826
▁にゃ	-10.8827
任せ	-10.8828
らせ	-10.8829
一体	-10.8829
でもなんでも	-10.8833
高級	-10.8835
えちゃん	-10.8837
洗	-10.8838
てください	-10.8841
余計	-10.8841
伝わる	-10.8842
つよ	-10.8843
ぎゅー	-10.8843
河	-10.8844
聞いたら	-10.8845
🤣💦	-10.8845
(˶	-10.8845
めぇ	-10.8845
頼り	-10.8845
のお話	-10.8848
わっ	-10.8851
💪💪💪	-10.8851
だる	-10.8852
発想	-10.8852
▁最初	-10.8852
kg	-10.8855
浮	-10.8856
いいんだよ	-10.8858
◜	-10.886
会えて嬉しかった	-10.8864
んすか	-10.8864
ギュッ	-10.8865
とかに	-10.8868
これからもよろしくお願いします	-10.887
ナル	-10.8871
喜	-10.8871
っている	-10.8872
の大	-10.8878
ないわ	-10.888
▁そうなんですよね	-10.8884
っぱなし	-10.8887
々と	-10.8887
翔	-10.8887
🍼	-10.8888
am	-10.8888
大変だった	-10.8888
トさん	-10.889
っとく	-10.8891
いくね	-10.8891
▁ヾ	-10.8898
TA	-10.8898
ウェ	-10.8898
お祈り	-10.8899
遠く	-10.8899
行きました	-10.89
消化	-10.8901
の皆さん	-10.8905
帰ったら	-10.8906
イズ	-10.8906
キャッチ	-10.8908
▁これからもよろしく	-10.8909
イー	-10.8911
泣いてる	-10.8912
ゆず	-10.8913
ྀི	-10.8916
gi	-10.8917
に向かって	-10.8918
君が	-10.8919
るなら	-10.8919
🤔🤔	-10.8919
อ	-10.8919
ó	-10.892
RE	-10.892
信用	-10.8921
てしまった	-10.8922
ダメな	-10.8924
▁すき	-10.8925
凍結	-10.8926
したことない	-10.8927
ラム	-10.8928
🥹💗	-10.8928
ワード	-10.893
見れ	-10.8931
流れて	-10.8933
害	-10.8934
もらえ	-10.8935
と思うから	-10.8936
お子さん	-10.8937
GET	-10.8937
'*)	-10.8938
焼	-10.8938
ないですか	-10.8939
ウサギ	-10.894
臭	-10.8941
▁22	-10.8943
今更	-10.8945
▁幸せ	-10.8947
ic	-10.8948
墓	-10.8948
😮	-10.8948
ばー	-10.8949
ter	-10.8949
堂	-10.895
ホワイト	-10.8951
▁だいぶ	-10.8951
🦋	-10.8951
▁なんだ	-10.8954
ドア	-10.8956
つかない	-10.8957
楽しいこと	-10.8961
バター	-10.8961
今年も宜しくお願いします	-10.8962
▁宜しくお願いします	-10.8963
て良かった	-10.8963
貰う	-10.8965
保護	-10.8965
姉さん	-10.8966
゚ω゚	-10.8967
冷たい	-10.8969
刻	-10.8969
キツイ	-10.8972
飲み会	-10.8973
告知	-10.8974
入らない	-10.8976
熱が	-10.8979
▁だい	-10.8979
しさん	-10.8981
起	-10.8982
真面目に	-10.8984
お返事ありがとうございます	-10.8987
揃って	-10.8989
ԅ	-10.8989
ou	-10.8992
虹	-10.8992
🎸	-10.8992
オッケー	-10.8993
だと思ってる	-10.8993
算	-10.8998
ぇぇぇ	-10.8999
たんですね	-10.9
アニ	-10.9002
オタ活	-10.9003
dm	-10.9004
のもの	-10.9004
おぉ	-10.9006
行ってた	-10.9006
たーい	-10.9007
怖くて	-10.9008
章	-10.901
出てた	-10.9013
くださってありがとうございます	-10.9015
かわいいです	-10.9019
▁めい	-10.9022
良くて	-10.9026
😼	-10.9027
RO	-10.9028
誤	-10.9028
耐え	-10.9029
あと少し	-10.9029
友達に	-10.9032
事務所	-10.9034
臭い	-10.9037
ᅲᅲ	-10.9037
✨🙏✨	-10.904
▁どんどん	-10.904
クール	-10.9044
▁残り	-10.9044
なくていい	-10.9045
餃子	-10.9047
らしくて	-10.9049
いますね	-10.9049
🥃	-10.905
売り切れ	-10.9053
𖦹	-10.9053
隣の	-10.9055
になってしまった	-10.9056
あけ	-10.9056
▁うさぎ	-10.9058
▁ほんとだ	-10.9058
できず	-10.9059
治療	-10.9059
zzz	-10.906
自宅	-10.9061
モー	-10.9063
▁心配	-10.9064
ございまーす	-10.9065
||	-10.9068
のご	-10.9069
いい事	-10.9069
なやつ	-10.907
代表	-10.9071
どうぞよろしくお願い致します	-10.9072
チビ	-10.9072
上位	-10.9072
そっと	-10.9074
当てて	-10.9074
"(	-10.9074
慣れて	-10.9075
▁おはよっ	-10.9075
▁かっこいい	-10.9076
めめ	-10.9076
▁)(	-10.9077
りゃ	-10.9078
嫉妬	-10.9079
▁いよいよ	-10.9079
▁きょう	-10.908
あげます	-10.9081
はかなり	-10.9084
ほら	-10.9084
us	-10.9084
まめ	-10.9084
やったー	-10.9087
すげー	-10.9089
強すぎ	-10.9089
隣に	-10.909
▁全く	-10.9091
性癖	-10.9091
わたしの	-10.9092
🙌💕	-10.9093
だっ	-10.9094
サム	-10.9096
だろうし	-10.9098
▁お疲れさま	-10.91
事情	-10.9101
🐔	-10.9101
招待	-10.9101
ッコ	-10.9102
先生に	-10.9102
陸	-10.9103
思い出して	-10.9103
を作って	-10.9104
びっくりしました	-10.9108
物語	-10.9108
地味に	-10.9111
づらい	-10.9112
範囲	-10.9113
chi	-10.9113
勝って	-10.9114
似	-10.9114
有難う御座います	-10.9114
目覚め	-10.9114
か分からない	-10.9115
▁娘	-10.9116
宿	-10.9117
残して	-10.9118
昭和	-10.912
楽しんできてね	-10.9122
それだけ	-10.9122
ランキング	-10.9123
🤭🤭🤭	-10.9124
してみた	-10.9124
お楽しみに	-10.9125
ちゃんおは	-10.9125
受けて	-10.9126
んだろうね	-10.9127
冷蔵庫	-10.9127
▁いろいろ	-10.9129
変える	-10.9129
🫶✨	-10.9129
カッ	-10.9131
るんだけど	-10.9131
手の	-10.9132
測	-10.9132
児	-10.9134
上げる	-10.9135
▁右	-10.9136
の交換	-10.9137
多少	-10.9137
▁羨ましい	-10.9137
わし	-10.9139
みち	-10.9142
ぃぃ	-10.9144
冷や	-10.9145
でしかない	-10.9146
とくん	-10.9146
もしや	-10.9147
ロール	-10.9151
いただける	-10.9151
連れてって	-10.9152
人もいる	-10.9154
鹿	-10.9155
補	-10.916
▁頑張ってください	-10.9164
オラ	-10.9166
ンさん	-10.9168
入ってた	-10.917
ーッ	-10.917
今も	-10.917
まな	-10.9175
体に	-10.9175
ご飯食べ	-10.9176
漬け	-10.9179
▁外	-10.9181
ea	-10.9182
もいいですか	-10.9182
庭	-10.9183
してみる	-10.9184
rt	-10.9185
次男	-10.9187
感じです	-10.9187
いじ	-10.9188
模様	-10.9188
してみたい	-10.9192
開封	-10.9192
千葉	-10.9194
ますからね	-10.9195
▁福岡	-10.9197
言います	-10.9201
話が	-10.9202
悩んでる	-10.9203
ピリ	-10.9203
これだけ	-10.9204
飲める	-10.9204
すみ	-10.9205
盤	-10.9206
AL	-10.9206
人見知り	-10.9208
今週	-10.9209
のでは	-10.921
買わ	-10.921
やれば	-10.9212
倒	-10.9212
確認して	-10.9213
👉	-10.9214
間違って	-10.9217
ませんよ	-10.9217
があり	-10.922
払い	-10.9223
最初は	-10.9225
矢	-10.9227
高速	-10.9228
もらってる	-10.9229
はぁ	-10.9229
第一	-10.9234
▁ゆい	-10.9235
ヤバイ	-10.9236
の歌	-10.9236
忙しくて	-10.9238
年になる	-10.9238
着いた	-10.924
付き合い	-10.9241
でもない	-10.9241
`・	-10.9241
ばかりで	-10.9243
始まった	-10.9244
余裕で	-10.9245
とかある	-10.9249
話してる	-10.925
んのか	-10.925
お伝え	-10.9251
勢いで	-10.9251
▁動画	-10.9251
今朝	-10.9253
札幌	-10.926
௰	-10.926
かわいそう	-10.926
をお過ごしください	-10.9261
なんなん	-10.9261
やってください	-10.9262
ハピ	-10.9262
芸	-10.9263
チャンネル	-10.9266
えた	-10.927
スタバ	-10.9271
坊	-10.9272
▁親	-10.9272
糸	-10.9273
▁何が	-10.9273
凄かった	-10.9279
並び	-10.9281
-(	-10.9281
絡もう	-10.9283
年内	-10.9285
円で	-10.9286
もまた	-10.9287
奪	-10.9288
鬱	-10.9289
ハゲ	-10.929
かわいかった	-10.9291
くれれば	-10.9291
まゆ	-10.9292
一部	-10.9293
遠慮	-10.9293
かせ	-10.9294
なくなりました	-10.9294
▁おはリプありがとう	-10.9296
意味で	-10.9297
お届け	-10.9297
🤤🤤	-10.9297
▁いちご	-10.9298
🎍🌅🎍	-10.9299
泣いちゃう	-10.9299
展	-10.93
ご確認	-10.93
💜💜	-10.9302
グク	-10.9304
、、、、、	-10.9304
に戻	-10.9304
外から失礼します	-10.9306
遊ぼうね	-10.9307
▁うれしい	-10.9307
倒れ	-10.9307
登	-10.9307
BOX	-10.9309
秘密	-10.9309
▁このまま	-10.931
-᷅	-10.931
パーカー	-10.931
とか言って	-10.9312
ご縁	-10.9312
えない	-10.9314
降	-10.9316
黄色	-10.9318
おかえり	-10.932
方が良い	-10.9321
卍	-10.9322
はもっと	-10.9323
▁みーちゃん	-10.9327
ゴン	-10.9329
ビン	-10.933
はやい	-10.933
▁おめでとうございます祝️	-10.9333
バンタン	-10.9335
MI	-10.9336
▁別に	-10.9339
きれない	-10.934
デッキ	-10.934
ポジティブ	-10.9341
機会があれば	-10.9342
越え	-10.9344
コマ	-10.9345
▁おっと	-10.9346
撫で	-10.9347
_:(	-10.9348
演奏	-10.9348
そうだな	-10.9349
鶏	-10.9351
変換	-10.9352
😆🙌	-10.9352
こわ	-10.9354
欲しいな	-10.9355
たる	-10.9357
れました	-10.9358
国民	-10.9359
研究	-10.9361
年が	-10.9362
呼吸	-10.9365
長期	-10.9365
🤮	-10.9365
六	-10.9368
被	-10.9369
ってなってる	-10.937
今のところ	-10.9372
tu	-10.9375
しゅう	-10.9375
あるんですね	-10.9375
悪くない	-10.9376
絵が	-10.9377
といえば	-10.9378
年末に	-10.9378
返せ	-10.9378
言ったら	-10.9378
•*	-10.9379
猫ちゃん	-10.938
▁ちょうど	-10.9382
o̴̶̷᷅	-10.9385
許可	-10.9385
高くて	-10.9387
MO	-10.9389
しき	-10.939
呼んでください	-10.9392
美味しそうな	-10.9393
そっか	-10.9397
楽しんでください	-10.9398
▁好きな	-10.9399
過ごしてね	-10.94
恋人	-10.9401
敷	-10.9402
✪	-10.9402
▁むり	-10.9403
演出	-10.9404
雪かき	-10.9405
してきて	-10.9406
叫んで	-10.9406
で良かった	-10.9407
済	-10.9408
の上	-10.9408
ぜったい	-10.9408
やってみたい	-10.9409
fl	-10.9409
万人	-10.941
者の	-10.9411
乗り越え	-10.9411
デー	-10.9411
してんの	-10.9412
になったよ	-10.9413
の頃	-10.9413
原作	-10.9414
▁ちな	-10.9416
うえ	-10.9416
バナナ	-10.9416
でしたよ	-10.9417
ガス	-10.9417
子供達	-10.9418
おじいちゃん	-10.9418
繋がりたい	-10.942
▁大変	-10.942
の方々	-10.9421
まれ	-10.9421
ファイティン	-10.9422
苦	-10.9425
ハル	-10.9427
🎌	-10.9428
エリア	-10.943
スイーツ	-10.9431
時差	-10.9433
土曜日	-10.9436
頑張りました	-10.9437
おいしそう	-10.9438
н	-10.9438
ないのか	-10.944
好きなように呼んで	-10.944
ぷり	-10.9442
口に	-10.9444
ふと	-10.9444
の良さ	-10.9445
アキ	-10.9446
って言われる	-10.9447
契約	-10.9448
増やして	-10.9448
見られて	-10.9448
才能	-10.9448
CD	-10.9449
方を	-10.9449
できてる	-10.945
希望です	-10.945
▁ラーメン	-10.945
▁レ	-10.9452
次の日	-10.9453
泉	-10.9454
🦑	-10.9454
メイ	-10.9455
食べよう	-10.9455
▁ぷ	-10.9456
一杯	-10.9457
リップ	-10.9457
AN	-10.9459
▁́◦	-10.9461
하	-10.9461
今晩	-10.9462
負ける	-10.9462
っぺ	-10.9464
ゆん	-10.9464
おくれ	-10.9466
▁あき	-10.9466
じゃね	-10.9467
知り	-10.9467
凄いです	-10.9471
≧	-10.9472
ケー	-10.9472
ヤッタ	-10.9473
▁18	-10.9473
他の人	-10.9473
ぜんぜん	-10.9474
▁暖かくして	-10.9475
だろうから	-10.9475
ゆら	-10.9477
宿題	-10.9478
▁あざます	-10.948
働く	-10.9481
楽しかったね	-10.9482
▁V	-10.9483
▁相変わらず	-10.9485
でしか	-10.9487
詳しい	-10.9491
は特に	-10.9491
抹茶	-10.9491
水分	-10.9491
だったよね	-10.9491
火力	-10.9492
人がいる	-10.9493
階段	-10.9493
▁do	-10.9494
▁おかえりなさい	-10.9497
ガンダム	-10.9498
いつも通り	-10.9499
▁ご飯	-10.9501
もらおう	-10.9504
▁さく	-10.9504
▁母	-10.9505
考えたら	-10.9506
とった	-10.951
寄って	-10.9511
投票	-10.9511
被って	-10.9512
そう言って	-10.9513
飴	-10.9514
タイトル	-10.9515
▁ありがとうございますー	-10.9516
混	-10.9519
バッグ	-10.9521
▁一生	-10.9522
ぎゃ	-10.9523
どうですか	-10.9523
原神	-10.9524
🤓	-10.9528
落ちた	-10.9529
怒られ	-10.9532
▁こちらこそよろしく	-10.9537
🎅🎄	-10.9538
いの	-10.9539
遊んでください	-10.9539
着物	-10.954
買いに	-10.9541
モモ	-10.9541
初夢	-10.9543
イク	-10.9544
おもろ	-10.9545
悪く	-10.9546
ソレ	-10.9546
仮	-10.9546
グッ	-10.9547
どうして	-10.9547
やさ	-10.9548
へへへ	-10.9549
回避	-10.955
ゆるゆる	-10.955
にしたい	-10.9551
🍩	-10.9551
主催	-10.9552
を大切に	-10.9553
🧧	-10.9553
▁YouTube	-10.9553
してなかった	-10.9557
めっちゃいい	-10.9558
救	-10.9558
▁́∇`*)	-10.9561
いえ	-10.9562
相互	-10.9564
▁ヽ	-10.9566
35	-10.9567
スピ	-10.9569
嬉しすぎて	-10.9569
公園	-10.9572
NG	-10.9572
価格	-10.9574
若干	-10.9575
のアイコン	-10.9576
イキ	-10.9576
▁スマホ	-10.9577
ないですよ	-10.9579
しなくて	-10.958
協力	-10.9582
くださりありがとうございます	-10.9583
▁彼女	-10.9583
▁完全に	-10.9585
幸いです	-10.9585
無理しないでね	-10.9586
まさ	-10.9586
👁	-10.9587
ここから	-10.9587
ぴちゃん	-10.9588
に行きたい	-10.9594
てきた	-10.9594
AR	-10.9594
▁ほら	-10.9594
ダッシュ	-10.9595
しますよね	-10.9595
*\(^	-10.9597
時間で	-10.96
▁U	-10.9602
明るい	-10.9602
子供の	-10.9603
🤨	-10.9605
▁ゆっくり休んでね	-10.9606
それまで	-10.9606
ってなりました	-10.9608
あく	-10.9608
くれました	-10.9609
▁おめでとー	-10.9611
〜❕	-10.9612
るやん	-10.9612
🎄🎁	-10.9612
`;):	-10.9613
探す	-10.9613
アルコール	-10.9614
所で	-10.9615
▁左	-10.9615
▁ワ	-10.9615
賀	-10.9615
〜!!!!	-10.9616
専	-10.9616
借り	-10.9616
▁パパ	-10.9617
ついでに	-10.9617
の朝	-10.9618
送ります	-10.9618
今夜	-10.9619
負担	-10.962
▁久々に	-10.962
┆	-10.9621
那	-10.9624
夜は	-10.9624
ᄒ	-10.9625
しやすい	-10.9626
꜆	-10.9626
からなぁ	-10.9626
頃に	-10.9626
太陽	-10.9626
コミ	-10.9627
^)/*	-10.9629
抜いて	-10.9629
移	-10.963
子育て	-10.9633
座って	-10.9633
きちゃん	-10.9635
低浮上	-10.9636
仲良くしてくれて	-10.9639
通販	-10.9639
るかな	-10.964
見つけたら	-10.964
せな	-10.9641
強化	-10.9641
🔆	-10.9643
▁きゃー	-10.9644
違うの	-10.9644
かもしれませんね	-10.9645
癒される	-10.9645
欠	-10.9647
パチ	-10.9648
どっちが	-10.9649
竜	-10.9649
稼ぎ	-10.965
とても嬉しいです	-10.9654
▁年始	-10.9655
▁そこは	-10.9656
💪🔥	-10.9656
ボーナス	-10.9656
しなかった	-10.9657
盛り上がって	-10.9658
▁友達	-10.9659
▁NEW	-10.966
▁なる	-10.966
のですか	-10.966
ホラー	-10.9663
の絵	-10.9663
?😳	-10.9664
立つ	-10.9666
貰え	-10.9666
高く	-10.9667
その分	-10.9668
洗濯	-10.9671
抱き	-10.9672
果	-10.9673
ER	-10.9675
ましょうね	-10.9677
向こう	-10.9679
自体	-10.9679
るい	-10.9679
ウマ	-10.9679
😭💓	-10.968
):	-10.9681
ハマり	-10.9681
自分から	-10.9683
▁やったね	-10.9683
納豆	-10.9684
,,&	-10.9684
きも	-10.9685
お絵描き	-10.9687
となりました	-10.9689
震え	-10.969
ദ്ദി	-10.969
ーーん	-10.9693
🌰	-10.9693
泣ける	-10.9694
野球	-10.9695
微妙	-10.9695
ぼー	-10.9698
おか	-10.9698
スイッチ	-10.9699
ナム	-10.9699
はありません	-10.97
丁寧に	-10.97
私だけ	-10.97
異常	-10.9701
ミュ	-10.9706
▁́⁠	-10.9708
いつもの	-10.9708
▁プレゼント	-10.9708
良いですか	-10.9708
▁セ	-10.9709
ni	-10.971
▁風	-10.9714
▁くそ	-10.9715
明日まで	-10.9716
こんなん	-10.9717
ーーーい	-10.972
いってる	-10.972
ーーい	-10.9724
あつ	-10.9724
冷凍	-10.9724
ガキ	-10.9725
きょう	-10.9725
なれ	-10.9727
カスタム	-10.9728
サポート	-10.9728
ちいかわ	-10.9729
レモン	-10.9731
伝説	-10.9732
▁娘ちゃん	-10.9732
われる	-10.9732
考え方	-10.9733
はやっぱり	-10.9733
すんな	-10.9735
回して	-10.9736
散らか	-10.9736
強制	-10.9738
無駄	-10.9739
敗	-10.974
RA	-10.974
かもしれませんが	-10.974
コウ	-10.9741
商	-10.9743
古い	-10.9743
▁ゆり	-10.9744
▁°	-10.9745
踊り	-10.9745
−	-10.9745
たぁ	-10.9745
も楽しみ	-10.9748
待ってた	-10.9749
▁まめ	-10.9749
ナイト	-10.9751
示	-10.9754
▁おおお	-10.9755
うぉ	-10.9758
まわ	-10.9758
雑談	-10.9759
キャス	-10.9759
奥さん	-10.976
!😳	-10.9761
段階	-10.9761
ふっ	-10.9762
600	-10.9762
▁あさ	-10.9763
って思いました	-10.9764
つー	-10.9764
と言えば	-10.9765
宜しくです	-10.9767
ひま	-10.9769
🏾	-10.9769
宣言	-10.9769
押して	-10.9769
食べられる	-10.977
る時	-10.9771
飛ば	-10.9773
▁お風呂	-10.9777
大事ですね	-10.9778
突	-10.9778
')/	-10.978
～。	-10.9783
黙	-10.9783
▁紅白	-10.9785
ちゃんあけましておめでとう	-10.9788
▁勝手に	-10.9789
gu	-10.9789
がり	-10.9791
って感じで	-10.9791
イオン	-10.9793
▁ゆる	-10.9793
🥩	-10.9793
雑魚	-10.9794
従	-10.9796
のほう	-10.9797
つまり	-10.9797
メイド	-10.9798
懐	-10.9799
🍆	-10.98
でぃ	-10.98
シート	-10.9801
▁返信	-10.9806
知ってた	-10.9806
しあわせ	-10.9807
ではありません	-10.9808
になってしまう	-10.9808
サブ垢	-10.9809
歳の	-10.9809
▁キ	-10.981
ちがう	-10.981
物販	-10.981
ヘッダー	-10.981
▁どっち	-10.9812
いつもより	-10.9812
こんばん	-10.9813
来てね	-10.9813
埼玉	-10.9814
業務	-10.9814
▁まい	-10.9818
穏やかな	-10.9818
実家に	-10.9819
お尻	-10.9819
˂̶͈́)	-10.9821
実現	-10.9821
静岡	-10.9821
ケイ	-10.9822
pe	-10.9823
▁new	-10.9824
りょ	-10.9825
だねー	-10.9827
早かった	-10.9828
ありますが	-10.9831
かみ	-10.9834
アナ	-10.9834
転職	-10.9835
ができる	-10.9836
離れて	-10.9837
ための	-10.9837
なりますよね	-10.9838
尻	-10.9838
▁ふー	-10.9838
響	-10.9839
ギル	-10.984
亜	-10.9841
飲み物	-10.9844
繋がってくれてありがとう	-10.9844
佐	-10.9845
ファミリー	-10.9845
ポッ	-10.9845
みんさん	-10.9848
お会いできる	-10.985
ゆっくり休んで	-10.985
〰	-10.9852
が楽しみ	-10.9852
イル	-10.9854
しますか	-10.9854
軸	-10.9855
唐揚げ	-10.9855
今年もよろしくお願いいたします	-10.9855
カプ	-10.9857
仕事終わり	-10.9859
していきましょう	-10.986
′	-10.9862
とこで	-10.9865
処理	-10.9866
いいねぇ	-10.9867
見つけ	-10.9868
制作	-10.9869
供給	-10.987
あき	-10.987
自発	-10.9872
適	-10.9872
▁イケメン	-10.9872
懐かし	-10.9875
キメ	-10.9878
基本的に	-10.9879
シナリオ	-10.9879
ないですね	-10.988
後から	-10.9881
習慣	-10.9882
KI	-10.9884
振	-10.9884
わたしが	-10.9884
好きだった	-10.9886
▁心	-10.9887
センチ	-10.9887
―	-10.9889
呼びタメ大歓迎なので	-10.989
色気	-10.9891
印刷	-10.9893
載せて	-10.9894
?←	-10.9897
タイプの	-10.9898
グレー	-10.9899
思ったより	-10.9901
位置	-10.9901
フフ	-10.9902
子供が	-10.9902
all	-10.9903
復	-10.9905
よしよし	-10.9907
すず	-10.9909
誰でも	-10.9912
お過ごしください	-10.9913
▁ゆきちゃん	-10.9914
帰った	-10.9915
当時	-10.9917
によっては	-10.9918
計算	-10.9918
🎄🎅	-10.9918
▁̆`*)♡	-10.992
キラ	-10.9921
ᴥ	-10.9921
🚗33	-10.9921
▁らい	-10.9922
フード	-10.9922
いいと思います	-10.9922
▁今年こそ	-10.9924
一生懸命	-10.9925
▁暇	-10.9925
고	-10.9925
廃	-10.9925
夕飯	-10.9925
▁t	-10.9926
観たい	-10.9928
▁実家	-10.9928
100%	-10.9928
shi	-10.993
サラ	-10.9931
殴	-10.9931
いいなあ	-10.9933
\(//∇//)\	-10.9935
▁うぇ	-10.9937
▁現金	-10.9937
行くね	-10.9938
様な	-10.9938
ぇー	-10.9939
〜〜!	-10.994
▁今月	-10.9942
食べに	-10.9944
自撮り	-10.9945
陰性	-10.9946
毎月	-10.9946
うっ	-10.9949
砂糖	-10.9949
??????	-10.995
🏆	-10.9953
、、、、、、	-10.9953
シングル	-10.9954
でしたっけ	-10.9954
?🙄	-10.9955
本年も	-10.9955
▁悲しい	-10.9956
されてます	-10.9957
▁たま	-10.9958
られました	-10.9959
🐮	-10.996
↓	-10.996
▁車	-10.996
大丈夫でしょうか	-10.9961
お料理	-10.9962
wwwwwwwwwwww	-10.9962
夜の	-10.9966
»	-10.9967
退院	-10.9967
がお	-10.9967
っしー	-10.9969
気にしないで	-10.9969
を迎え	-10.997
ぢ	-10.997
🫶🏻🫶🏻🫶🏻	-10.997
見てると	-10.9973
くなっちゃう	-10.9976
だけだから	-10.9977
たけ	-10.9979
の数	-10.998
お客様	-10.9981
▁いー	-10.9982
▁家	-10.9983
社畜	-10.9984
▁ほぼ	-10.9985
吹き	-10.9985
るのかな	-10.9987
KO	-10.9988
用事	-10.999
しまーす	-10.9991
感じて	-10.9992
お湯	-10.9992
:)_	-10.9993
ホン	-10.9996
告白	-10.9996
🤣🤣🤣🤣🤣	-10.9997
事も	-10.9997
リスナー	-10.9998
▁なんの	-10.9999
愛が	-10.9999
フン	-10.9999
文化	-10.9999
▁大人	-10.9999
*・	-10.9999
ますので	-11
折	-11.0001
鍵垢	-11.0001
死に	-11.0001
頼んで	-11.0001
であります	-11.0003
BL	-11.0004
(*-	-11.0006
きちんと	-11.0006
オル	-11.0006
▁ごめんね	-11.0009
ちゃんを	-11.0009
場合は	-11.0009
見に	-11.001
😆💕✨	-11.0012
治る	-11.0013
おうち	-11.0015
このツイート	-11.0015
むら	-11.0016
いくの	-11.0017
落ち着く	-11.0017
会えるの	-11.0017
気を付け	-11.0018
魅力	-11.0019
惚れ	-11.0022
▁基本	-11.0022
党	-11.0022
᷇ᴗ	-11.0026
タリ	-11.0026
込め	-11.0027
めぐ	-11.0027
アカン	-11.0029
はお	-11.0029
実装	-11.0031
いいんだけど	-11.0033
はもちろん	-11.0033
障害	-11.0034
あっち	-11.0034
▁昼	-11.0035
かと思います	-11.0035
さんから	-11.0035
被り	-11.0035
▁怖い	-11.0039
凍	-11.0039
ドロ	-11.004
おった	-11.004
官	-11.0041
▁冬休み	-11.0041
残す	-11.0043
あま	-11.0044
えさん	-11.0044
時が	-11.0044
だるい	-11.0045
目指す	-11.0046
うらやましい	-11.0047
落ち着いた	-11.0047
する人	-11.0047
ヨロ	-11.0047
がとても	-11.0048
綾	-11.0051
เ	-11.0051
本物	-11.0051
メーカー	-11.0051
再度	-11.0053
▁que	-11.0053
💜💜💜	-11.0054
使えない	-11.0056
▁みんなの	-11.0056
靴下	-11.0056
関連	-11.0061
▁•̀_•́)	-11.0062
やると	-11.0062
筋肉痛	-11.0062
〜🥳	-11.0062
お腹いっぱい	-11.0062
満喫	-11.0065
😅😅😅	-11.0065
アピール	-11.0069
近くの	-11.0071
跡	-11.0072
さむ	-11.0074
いいや	-11.0074
りんちゃん	-11.0075
はダメ	-11.0075
⭐︎	-11.0075
所に	-11.0077
ゴリラ	-11.0077
充実した	-11.0079
ふる	-11.0079
゚)	-11.0081
ふぃ	-11.0082
広告	-11.0083
無理だ	-11.0083
大丈夫よ	-11.0085
初日の出	-11.0085
▁何も	-11.0088
良いよね	-11.0088
▁サンタ	-11.0089
▁なつ	-11.0092
は別	-11.0092
楽しみます	-11.0093
期待してます	-11.0095
毎度	-11.0095
揃え	-11.0096
🫵	-11.0097
キュー	-11.0101
▁se	-11.0103
にしよ	-11.0104
できなくて	-11.0104
サプライズ	-11.0104
▁今夜は	-11.0106
頂	-11.0107
パチンコ	-11.0109
リコ	-11.0109
こうやって	-11.0109
(⁎	-11.011
🧹	-11.0111
▁当日	-11.0111
相手が	-11.0112
例の	-11.0114
💊	-11.0115
お仕事お疲れ様でした	-11.0118
夕	-11.0118
やったね	-11.012
他人	-11.012
ようになる	-11.0121
その通り	-11.0122
お疲れさまです	-11.0122
宅	-11.0122
るんですか	-11.0123
チラ	-11.0123
go	-11.0123
たまには	-11.0124
とお	-11.0124
なんですかね	-11.0124
違って	-11.0125
⤴︎	-11.0125
デュオ	-11.0126
周りの	-11.0127
ウフフ	-11.0128
似合ってる	-11.0128
❤️‍🔥❤️‍🔥	-11.0129
突破	-11.0129
良いね	-11.013
できること	-11.013
たのか	-11.013
くれたら嬉しい	-11.0131
ギャル	-11.0132
❌	-11.0133
麦	-11.0133
«	-11.0133
料	-11.0137
お会いしましょう	-11.0139
ソワソワ	-11.014
▁ラスト	-11.0141
トル	-11.0145
デカい	-11.0152
やりたいこと	-11.0154
▁確か	-11.0154
❣️❣️❣️	-11.0155
🤟🏻	-11.0156
タル	-11.0157
多め	-11.0158
伝える	-11.0159
▁どうか	-11.016
ゆり	-11.0162
のイラスト	-11.0162
*:	-11.0162
だったし	-11.0162
来るの	-11.0163
リア友	-11.0163
頭の中	-11.0167
▁みみ	-11.0168
盗	-11.0168
優秀	-11.0169
ガイ	-11.0172
一切	-11.0174
観光	-11.0175
ワシ	-11.0178
ランダム	-11.018
出来そう	-11.0181
▁二	-11.0182
うた	-11.0183
減って	-11.0186
友達が	-11.0187
みると	-11.0188
ジュース	-11.019
愛情	-11.019
たいですね	-11.0191
曲が	-11.0192
いますか	-11.0193
るる	-11.0194
境	-11.0195
良いこと	-11.0197
ご馳走	-11.0197
▁お気をつけて	-11.0197
もあるから	-11.0199
ない人	-11.02
今日まで	-11.0201
おばちゃん	-11.0201
決まった	-11.0202
のことを	-11.0203
達が	-11.0203
せいで	-11.0203
▁うさ	-11.0203
▁美味しかった	-11.0204
可愛いの	-11.0205
富士山	-11.0205
なつ	-11.0206
打つ	-11.0207
and	-11.0209
からまた	-11.021
なぁー	-11.0211
これも	-11.0211
\*)	-11.0212
伊	-11.0213
呪い	-11.0213
ことはない	-11.0214
エイ	-11.0217
ったん	-11.0218
ってて	-11.0218
🎮	-11.0218
教育	-11.0219
話した	-11.022
持	-11.0221
怒り	-11.0222
こうして	-11.0222
▁元	-11.0223
うんうん	-11.0225
🤢	-11.0226
許す	-11.0226
そうだから	-11.0226
だよねー	-11.0227
ないでください	-11.0228
絡めて	-11.0229
じゃないです	-11.023
描け	-11.0231
池	-11.0231
ᅲ	-11.0239
割れ	-11.024
を作る	-11.0243
▁よっしゃ	-11.0243
スポーツ	-11.0244
以来	-11.0245
コール	-11.0247
話せる	-11.0247
そうなので	-11.0248
ネタバレ	-11.025
😅😅	-11.0251
◟	-11.0251
これ以上	-11.0252
嫌いな	-11.0254
減ら	-11.0254
🦁	-11.0255
コンビ	-11.0255
やるよ	-11.0255
数日	-11.0255
さを	-11.0259
兄さん	-11.026
迷う	-11.026
.。.:*	-11.0262
本番	-11.0262
あったから	-11.0263
んやね	-11.0263
野郎	-11.0264
▁́ཫ	-11.0264
繋がった	-11.0266
たまご	-11.0269
んん	-11.027
専門	-11.0272
🍱	-11.0273
なぎ	-11.0274
▁॑*)	-11.0274
破壊	-11.0275
とろ	-11.0276
記録	-11.0276
家族で	-11.0277
シロ	-11.0278
いいから	-11.0278
可愛いですね	-11.0279
駄目	-11.0281
給	-11.0281
🌝	-11.0283
ふぁいと	-11.0284
セール	-11.0285
メル	-11.0287
寝れる	-11.0287
すんごい	-11.0291
▁御	-11.0291
wwwwwwwwww	-11.0292
ないかも	-11.0294
▁🎄	-11.0297
渋滞	-11.0299
よろしくお願いしまーす	-11.0299
️⃣	-11.0299
がんばった	-11.03
ぐり	-11.03
んじゃないか	-11.03
行ってらっしゃい	-11.0301
出てこない	-11.0301
心から	-11.0301
▁レイ	-11.0301
ST	-11.0304
🥺💦	-11.0304
ならん	-11.0305
マフラー	-11.0305
珍しく	-11.0306
いよいよ	-11.0306
折れ	-11.0306
ふむ	-11.0308
致しました	-11.031
:)	-11.031
の味	-11.031
薄い	-11.0311
ꇴ	-11.0312
(*≧∀≦*)	-11.0312
いざ	-11.0313
監督	-11.0316
🤯	-11.0316
でしょー	-11.0316
寄	-11.0317
怖かった	-11.0319
月から	-11.0319
ウス	-11.0319
お先にフォロー失礼致します	-11.032
たな	-11.032
_(┐「	-11.0323
分かり	-11.0324
▁みかん	-11.0325
▁なんだか	-11.0325
絵を	-11.0325
ci	-11.0326
🐉	-11.0327
大人の	-11.0329
コンサート	-11.0331
暖房	-11.0331
時計	-11.0331
ve	-11.0332
😷	-11.0334
深く	-11.0334
▁̆ˋ*)	-11.0334
となると	-11.0335
絡みに	-11.0335
しましたが	-11.0337
無限	-11.0338
いったら	-11.0339
くわ	-11.0341
過ごせますように	-11.0344
🙏🏻✨	-11.0344
現状	-11.0345
そしたら	-11.0346
▁ガ	-11.0346
買えた	-11.0346
テイ	-11.0346
なでなで	-11.0348
蘭	-11.0349
エネルギー	-11.0349
ちょこちょこ	-11.0349
ワールド	-11.0349
順番	-11.035
んんん	-11.0352
🫠🫠	-11.0352
身に	-11.0356
大歓迎	-11.0356
は結構	-11.0359
鶴	-11.036
▁オレ	-11.036
ゴールド	-11.0361
🎍🌅	-11.0362
住所	-11.0363
王子	-11.0364
にしました	-11.0366
▁おっけ	-11.0366
•̫͡•	-11.0367
▁21	-11.0367
くださった	-11.0368
きょ	-11.0369
▁来年も宜しくお願いします	-11.0369
奏	-11.037
充分	-11.0371
お天気	-11.0371
わーい	-11.0373
🥺❤️	-11.0375
だんだん	-11.0375
恥	-11.0378
有り	-11.0379
何回か	-11.038
抜けて	-11.0383
に行こう	-11.0385
▁ク	-11.0385
ドゥ	-11.0387
下がり	-11.0389
行ってない	-11.039
人多い	-11.039
投	-11.0391
が多くて	-11.0391
戦闘	-11.0391
どうしよ	-11.0392
していて	-11.0392
集まり	-11.0393
進む	-11.0393
あそぼ	-11.0394
CO	-11.0397
?:	-11.0397
横に	-11.0401
▁顔	-11.0402
かなと	-11.0402
安定の	-11.0405
お客さん	-11.0405
▁後で	-11.0406
寝よう	-11.0407
リスク	-11.0409
遊びましょう	-11.041
その日	-11.041
難易度	-11.0411
先日	-11.0415
対象	-11.0415
娘ちゃん	-11.0415
🤣💕	-11.0416
HA	-11.0417
テレ	-11.0418
呑み	-11.0418
双子	-11.0419
▁su	-11.042
ぼん	-11.042
セリフ	-11.0422
帰ってくる	-11.0426
(__)	-11.0427
タイヤ	-11.0427
英	-11.0428
▁うー	-11.0428
しみ	-11.0434
コスプレ	-11.0434
▁やま	-11.0435
織	-11.0435
▁ᐙ	-11.0438
へい	-11.0439
😭❤️	-11.0441
バレた	-11.0442
エス	-11.0445
ツイートを	-11.0445
▁そのまま	-11.0447
活用	-11.0448
if	-11.0448
ところは	-11.0451
棚	-11.0451
お先に	-11.0452
らなくて	-11.0455
⸝⸝•	-11.0456
称	-11.0457
わず	-11.0457
能	-11.0459
解釈	-11.0459
修行	-11.046
といいなぁ	-11.046
通じ	-11.0462
操作	-11.0463
競馬	-11.0466
パチパチ	-11.0468
はいけない	-11.0469
ぅぅぅ	-11.047
😬	-11.0473
モテ	-11.0474
するんだ	-11.0474
᷄	-11.0475
こんなこと	-11.0475
はよく	-11.0478
o̴̶̷᷄	-11.048
抗	-11.048
bu	-11.0481
イヤホン	-11.0482
▁՞	-11.0483
〜🤭	-11.0484
ったの	-11.0484
行くと	-11.0486
▁˂	-11.0488
出身	-11.0489
Love	-11.049
道路	-11.049
(・_・	-11.0491
めでたい	-11.0492
風に	-11.0492
容	-11.0494
たびに	-11.0495
と言われて	-11.0497
▁何を	-11.0497
厳選	-11.05
恵	-11.0501
こちらからも	-11.0502
▁ファイト	-11.0503
ンゴ	-11.0503
🥚	-11.0503
発動	-11.0504
キャー	-11.0506
まちゃん	-11.0506
〇〇	-11.0507
寒いから	-11.0511
〜❤️	-11.0512
都会	-11.0512
からずっと	-11.0512
やってるの	-11.0513
🤦	-11.0513
寝不足	-11.0515
免許	-11.0518
ジャンル	-11.0519
の人に	-11.0519
の方で	-11.052
やなぁ	-11.052
Switch	-11.0521
((((;	-11.0524
▁好感度	-11.0525
会いに	-11.0525
アレルギー	-11.0525
🦖	-11.0525
ゴール	-11.0526
▁フォロワー	-11.0526
を使って	-11.0527
下げ	-11.0529
になるので	-11.053
ってください	-11.0531
仲良くしよ	-11.0532
集まって	-11.0533
スラ	-11.0533
姉妹	-11.0534
ショット	-11.0535
願	-11.0536
🐒	-11.0536
やってて	-11.0538
浜	-11.0539
ウォ	-11.0539
▁足	-11.054
かない	-11.054
WWWWWWWWWWWWWWWW	-11.0541
めっちゃ可愛い	-11.0542
すさん	-11.0544
腹筋	-11.0544
言葉が	-11.0545
回くらい	-11.0546
怒られる	-11.0547
コンテンツ	-11.0547
てました	-11.0549
杉	-11.0555
すればいい	-11.0557
下ネタ	-11.056
る感じ	-11.0562
▁不	-11.0563
ちゃん呼び	-11.0563
休め	-11.0564
最高な	-11.0564
りと	-11.0565
ぞぉ	-11.0565
出そう	-11.0566
デュ	-11.0567
リプライ	-11.0571
800	-11.0571
でお	-11.0572
言いたい	-11.0573
堪能	-11.0574
するし	-11.0574
▁ハル	-11.0575
様が	-11.0575
そういえば	-11.0576
言うの	-11.0576
気持ち悪い	-11.0577
ポイ	-11.0578
タッチ	-11.0578
組んで	-11.058
削除	-11.0581
母親	-11.0582
指定	-11.0585
した時	-11.0587
(⁠*⁠	-11.0588
〜😁	-11.0589
イヴ	-11.059
‧	-11.059
いぬ	-11.059
無駄に	-11.0591
ビジネス	-11.0592
拾って	-11.0592
▁りり	-11.0593
れます	-11.0596
遊びましょ	-11.0596
材	-11.0596
カッコ	-11.0599
▁もしかしたら	-11.06
出ました	-11.0601
速攻	-11.0601
YO	-11.0602
💌	-11.0603
ないですよね	-11.0604
すり	-11.0605
強くて	-11.0606
るもの	-11.0607
そうそう	-11.0608
呼び捨て	-11.0609
ッキー	-11.061
戻り	-11.061
もう一度	-11.0611
初めての	-11.0612
最前	-11.0612
見よう	-11.0613
のり	-11.0614
▁̄^	-11.0614
わる	-11.0615
コーナー	-11.0615
▁co	-11.0616
モンスター	-11.0616
に乗って	-11.0617
拒否	-11.0618
おこう	-11.0619
いるけど	-11.062
直し	-11.0621
ie	-11.0624
AT	-11.0626
ヨー	-11.0626
▁あなた	-11.0627
物を	-11.0631
毎週	-11.0631
〜🙌	-11.0633
詰	-11.0634
てくれ	-11.0634
▁ぽん	-11.0636
みてる	-11.0638
みゅ	-11.0639
仕事を	-11.064
`;)	-11.064
いきたいです	-11.064
隔離	-11.0641
読め	-11.0641
▁一緒	-11.0642
俺と	-11.0643
🎊🎉	-11.0644
▁それを	-11.0646
-`)	-11.0647
部屋に	-11.0647
店長	-11.0647
もぉ	-11.0648
ม	-11.0648
～💕	-11.0649
パンチ	-11.065
前半	-11.0651
が増えて	-11.0652
しようと	-11.0652
りんご	-11.0653
▁わかりました	-11.0655
SE	-11.0657
^^;	-11.066
せた	-11.0661
☺️💓	-11.0662
にこにこ	-11.0663
寂しく	-11.0663
▁こー	-11.0665
たりして	-11.0665
おめでとー	-11.0665
マイク	-11.0669
▁おれも	-11.067
▁ぼく	-11.0676
埋め	-11.0676
お身体	-11.0677
✨💕	-11.0677
の違い	-11.0678
▁その後	-11.0679
▁前回	-11.068
頑張るよ	-11.068
何故	-11.0682
悪くて	-11.0683
すごかった	-11.0683
〜✨✨	-11.0684
干	-11.0687
めっ	-11.0687
にい	-11.0689
豪	-11.0689
見たけど	-11.069
の件	-11.069
飾	-11.069
ほん	-11.0691
描ける	-11.0693
迷い	-11.0695
べる	-11.0696
上から	-11.0696
狩り	-11.0697
助かりました	-11.0697
言葉に	-11.0698
沖縄	-11.07
ぴえん	-11.0701
体調不良	-11.0702
▁だれ	-11.0702
とかいう	-11.0702
いただきありがとうございました	-11.0702
まじか	-11.0702
ルート	-11.0703
くださる	-11.0704
バンバン	-11.0704
束	-11.0704
▁来年もよろしくです	-11.0705
すべき	-11.0706
▁よろしくです	-11.0706
れません	-11.0706
くださり	-11.0707
で良い	-11.0708
番目	-11.071
山田	-11.0712
言い訳	-11.0713
適当	-11.0713
∗	-11.0716
中学生	-11.0716
そうでした	-11.0717
の人は	-11.0718
する事	-11.0719
▁スペース	-11.0719
の存在	-11.072
こよ	-11.072
ジンくん	-11.072
したわ	-11.0722
ええやん	-11.0725
完	-11.0725
▁みな	-11.0726
いいじゃん	-11.0727
くれたり	-11.0728
ペット	-11.0729
だれか	-11.0731
帰りに	-11.0731
ビル	-11.0732
大丈夫か	-11.0733
日付	-11.0733
安く	-11.0734
前提	-11.0734
見ます	-11.0734
飯テロ	-11.0737
神戸	-11.0737
してたよ	-11.0739
印	-11.074
▁誰が	-11.074
ポリ	-11.0742
はなかなか	-11.0742
🙊	-11.0742
ギフト	-11.0743
ツイートする	-11.0744
気持ちいい	-11.0744
苦し	-11.0745
はるか	-11.0747
MAX	-11.0747
姿を	-11.075
起きたら	-11.075
夜中	-11.0751
わかん	-11.0751
欄	-11.0751
言うな	-11.0752
あってる	-11.0753
乗った	-11.0753
おしゃべり	-11.0754
▁けん	-11.0758
😢😢	-11.0758
するのも	-11.0761
小声	-11.0761
▁お昼	-11.0762
ろろ	-11.0763
ぶる	-11.0764
✨✨✨✨	-11.0764
だろうね	-11.0768
▁そーなの	-11.0769
少年	-11.077
らし	-11.0772
見えた	-11.0773
昨年	-11.0774
▁クソ	-11.0775
クセ	-11.0776
ᯅ	-11.0776
⚽️	-11.0777
おもしろ	-11.0778
ぱい	-11.0779
ほー	-11.0779
沈	-11.078
澤	-11.078
▁̈	-11.078
疲れる	-11.0781
リピ	-11.0781
諦めた	-11.0782
感じた	-11.0783
むー	-11.0785
であれば	-11.0786
ラル	-11.0786
💙💙💙	-11.0787
あそこ	-11.0788
貴	-11.0788
推しに	-11.0788
うそ	-11.0789
前回	-11.0789
言いながら	-11.079
どうした	-11.079
選ぶ	-11.0792
マキ	-11.0794
ミカ	-11.0794
テーマ	-11.0795
気づいたら	-11.0798
っちゃいます	-11.0798
なんとも	-11.0799
▁マイ	-11.0799
椅子	-11.0799
中は	-11.0801
郎	-11.0802
健康に	-11.0802
してますね	-11.0803
でいっぱい	-11.0806
いたから	-11.0806
🍨	-11.0807
の意味	-11.0807
🐰💕	-11.0807
買うの	-11.0807
可愛くない	-11.0807
内で	-11.0808
って思ってます	-11.0808
▁ワイ	-11.0809
⁎	-11.081
車の	-11.0811
決める	-11.0814
な気がする	-11.0816
の上に	-11.0816
今頃	-11.0817
🙏💦	-11.0817
よろしければ	-11.0818
消す	-11.0819
まずい	-11.0819
ッテ	-11.082
パンダ	-11.082
推し事	-11.0821
えり	-11.0821
気にしない	-11.0822
維持	-11.0823
大好きなので	-11.0824
ɞ̴̶̷	-11.0826
潤	-11.083
旦那が	-11.0831
いますが	-11.0832
ドレス	-11.0833
回る	-11.0833
▁ガチで	-11.0834
な人	-11.0834
ミル	-11.0835
熟	-11.0837
減る	-11.0838
シフト	-11.084
▁ぶ	-11.0841
オーラ	-11.0843
の音	-11.0843
あか	-11.0845
▁アレ	-11.0845
晩	-11.0846
🦆	-11.0846
▁いち	-11.0846
デブ	-11.0847
▁そこまで	-11.0847
これを	-11.0848
蒼	-11.0849
摂取	-11.0849
食べられ	-11.0851
たちが	-11.0852
▁14	-11.0852
!!!!!!!!!!!	-11.0853
▁大丈夫ですか	-11.0855
ぃぃぃ	-11.0855
✋🏻	-11.0857
🎯	-11.0857
🐭	-11.0857
▁今年一年	-11.0859
もあるので	-11.0859
▁正解	-11.086
話しかけて	-11.086
するしかない	-11.0863
▁いいな	-11.0863
こっちの	-11.0865
乗せ	-11.0866
はあまり	-11.0866
ボディ	-11.0866
おめめ	-11.0867
多すぎて	-11.0867
仁	-11.0868
大事ですよね	-11.0868
てくれる	-11.0869
方向	-11.087
じゅん	-11.0873
自分でも	-11.0874
▁それはそう	-11.0875
子も	-11.0875
チャージ	-11.0877
絶賛	-11.0877
𓈒𓂂𓏸	-11.0879
だったかな	-11.088
液	-11.0882
▁ナ	-11.0884
et	-11.0887
体調崩	-11.0888
▁he	-11.0888
いくよ	-11.0892
こち	-11.0894
😉👍	-11.0894
▁寝る	-11.0895
🫶🏼	-11.0895
表示	-11.0896
▁通知	-11.0896
の皆様	-11.0897
させた	-11.0897
気をつける	-11.0898
ơ	-11.0899
モリ	-11.0899
า	-11.0903
▁目	-11.0903
良くなって	-11.0904
やってみます	-11.0906
...🤔💭	-11.0907
ってのが	-11.0908
無くなる	-11.091
▁花	-11.091
凪	-11.091
こんにちわ	-11.0911
▁うむ	-11.0912
ちゃんにも	-11.0916
写真撮って	-11.0916
お声かけ	-11.0917
なもの	-11.0919
娘の	-11.092
一枚	-11.0921
みぃ	-11.0921
構って	-11.0921
ならば	-11.0921
発熱	-11.0922
ずら	-11.0922
(◜	-11.0922
演	-11.0923
ぽぽ	-11.0924
兵	-11.0925
'-'	-11.0926
触	-11.0929
仏	-11.093
リズム	-11.0931
合った	-11.0931
ハードル	-11.0932
ぽこ	-11.0932
誰にも	-11.0933
▁いろんな	-11.0934
ワタシ	-11.0935
いつから	-11.0935
もよろしくお願いします	-11.0935
オス	-11.0936
ツイートして	-11.0937
新潟	-11.0937
でいいよ	-11.0938
ゴメン	-11.094
店員さん	-11.094
地球	-11.094
を見た	-11.094
本音	-11.094
▁はな	-11.094
˵	-11.0941
抱っこ	-11.0941
夜中に	-11.0942
ダメです	-11.0945
そーゆー	-11.0945
😂✨	-11.0945
着る	-11.0947
▁はるちゃん	-11.0948
触って	-11.0948
っぷ	-11.0949
次こそ	-11.0952
やばいよね	-11.0952
帰りたい	-11.0953
止まら	-11.0954
▁あるある	-11.0954
〜👍	-11.0954
▁えり	-11.0956
自動	-11.0957
意味が	-11.0959
39	-11.0961
si	-11.0961
美味しかったよ	-11.0962
行かなきゃ	-11.0964
▁一言	-11.0964
▁̇ᐢ	-11.0965
切り替え	-11.0965
見てました	-11.0966
にこ	-11.0967
派手	-11.0967
▁りょ	-11.0969
ハウス	-11.097
われて	-11.097
こちらの	-11.097
▁そうなんよ	-11.0972
チャリ	-11.0972
歴史	-11.0974
くす	-11.0974
どゆこと	-11.0976
がまた	-11.0977
▁んね	-11.0979
▁声	-11.0979
美容	-11.0981
シェア	-11.0982
からこそ	-11.0983
▁ってか	-11.0983
▁おはよん	-11.0985
コツ	-11.0986
昔の	-11.0986
派です	-11.0987
案外	-11.099
されてて	-11.0991
▁そう言って	-11.0994
▁͈̆	-11.0994
はみんな	-11.0994
ルカ	-11.0995
▁元々	-11.0995
▁︎︎	-11.0995
朝の	-11.0996
直す	-11.0997
向いて	-11.0997
なら良かった	-11.0999
パスタ	-11.1
ですよねぇ	-11.1
▁絶対に	-11.1002
消えた	-11.1002
━━	-11.1003
ちょうだい	-11.1004
資	-11.1005
是非とも	-11.1006
お願いしたい	-11.1007
又	-11.1007
隊長	-11.1009
▁けい	-11.101
終わってる	-11.101
pi	-11.1011
くれてありがとうございます	-11.1012
お仕事頑張って	-11.1012
欲しいですね	-11.1012
焼いて	-11.1012
全開	-11.1012
候補	-11.1015
たび	-11.1017
お掃除	-11.1018
暴	-11.1018
時間帯	-11.1021
▁mo	-11.1022
～(*	-11.1023
美味そう	-11.1025
オッ	-11.1025
ふん	-11.1026
にでも	-11.1027
ʚ	-11.1027
今年最後の	-11.1027
縁起	-11.1027
▁電話	-11.1027
かさ	-11.1028
オハヨ	-11.1028
前後	-11.1029
UN	-11.1031
ガル	-11.1032
とけ	-11.1036
近所	-11.1037
ラップ	-11.1038
修正	-11.1039
それ以外	-11.1041
▁お大事にしてください	-11.1044
を受け	-11.1045
素敵なクリスマスを	-11.1045
合わ	-11.1045
イラ	-11.1046
代行	-11.1046
たのは	-11.1046
やつは	-11.1046
▁年末年始は	-11.1047
直して	-11.105
🦈	-11.1054
ウケる	-11.1054
▁風邪	-11.1055
育て	-11.1056
してるし	-11.1056
美味	-11.1057
シャー	-11.1057
それとも	-11.1057
幻	-11.1057
どこでも	-11.1058
▁下	-11.1058
みたけど	-11.1059
立場	-11.106
専用	-11.106
はちゃんと	-11.1061
おばさん	-11.1062
って言い	-11.1063
の内容	-11.1065
▁学校	-11.1065
親に	-11.1065
かわいすぎる	-11.1065
▁よい	-11.1069
ちが	-11.107
医療	-11.107
▁うる	-11.1072
くださ	-11.1076
km	-11.1076
みや	-11.1079
ふわ	-11.1079
酸	-11.108
楽しめ	-11.1082
らす	-11.1082
仕事中	-11.1082
ちと	-11.1084
何かしら	-11.1085
んだって	-11.1085
いっしょに	-11.1086
▁一番	-11.1087
過去の	-11.1088
いい人	-11.1089
🚃	-11.1089
ケア	-11.1091
▁肉	-11.1091
是非是非	-11.1093
音が	-11.1094
できるよ	-11.1095
貯金	-11.1095
きゅー	-11.1097
👉🏻👈🏻	-11.1097
▁たけ	-11.1097
ハマ	-11.1098
ナニ	-11.1105
ごま	-11.1105
辛かった	-11.1108
▁13	-11.1108
▁この度は	-11.1108
牛乳	-11.1109
💥💥💥	-11.111
たのしい	-11.1112
しかいない	-11.1114
一瞬で	-11.1115
その人	-11.1117
どこまで	-11.1118
になってて	-11.1119
のイベント	-11.1121
見たいです	-11.1121
好きすぎて	-11.1122
▁))	-11.1122
きてください	-11.1122
🌙*゚	-11.1122
好きだけど	-11.1123
▁先日	-11.1124
他にも	-11.1124
▁クロ	-11.1125
癒されて	-11.1126
mu	-11.1126
▁ポ	-11.1127
勝てない	-11.1127
入ってない	-11.1128
ピース	-11.1128
ある意味	-11.1128
の仕事	-11.1128
うる	-11.113
受け取って	-11.113
実家で	-11.113
出張	-11.113
叩き	-11.1131
🍬	-11.1133
もあるけど	-11.1134
?🥹	-11.1137
新宿	-11.1141
ばら	-11.1141
ゴム	-11.1142
九	-11.1144
▁有難うございます	-11.1146
ッッッッ	-11.1147
HAPPY	-11.1148
ませんように	-11.1149
行ったことない	-11.1149
一本	-11.1149
まみれ	-11.115
▁X	-11.1151
▁一瞬	-11.1151
ドー	-11.1152
ってない	-11.1153
(^_^)	-11.1154
集中	-11.1154
倉	-11.1156
の所	-11.1156
▁分かります	-11.1157
やってくれ	-11.1158
が出	-11.1158
▁Good	-11.116
たつ	-11.116
▁ところで	-11.1161
好きだ	-11.1163
🐬	-11.1168
消して	-11.1169
三が日	-11.117
✍️	-11.1172
▁コレ	-11.1176
じゃなくても	-11.1177
感じが	-11.1178
一緒だ	-11.1183
体を	-11.1184
ペア	-11.1184
行けなかった	-11.1184
ぱー	-11.1185
🤍🤍🤍	-11.1187
麗	-11.1188
すごいね	-11.1189
た時	-11.1191
鼻水	-11.1192
過ごせる	-11.1193
クッ	-11.1193
はずです	-11.1194
辺	-11.1194
りり	-11.1195
o̴̶̷	-11.1195
良いな	-11.1198
写真を	-11.1198
わせ	-11.12
守って	-11.1201
あるのに	-11.1203
混んで	-11.1203
▁早速ですが	-11.1203
の夢	-11.1204
仕事の	-11.1204
というより	-11.1207
基準	-11.1208
▁しゃ	-11.1208
No	-11.1209
▁旦那	-11.121
▁りん	-11.121
•͈	-11.1211
枕	-11.1211
声を	-11.1212
ああああああ	-11.1213
新しく	-11.1214
ちゃうの	-11.1215
やるぞ	-11.1215
たらいいな	-11.1216
注	-11.1217
圧倒的	-11.1217
しなくても	-11.1218
▁来月	-11.1223
雪だるま	-11.1226
編成	-11.1226
買いたい	-11.1228
▁しゅ	-11.123
斗	-11.123
天然	-11.1231
▁ひま	-11.1232
テー	-11.1234
時頃	-11.1235
リカ	-11.1235
▁わっ	-11.1237
旨	-11.1238
なかったよ	-11.1238
したいけど	-11.1239
に来る	-11.1239
マイクラ	-11.1239
▁́∇`)	-11.1239
ラッシュ	-11.1239
響き	-11.1241
ごり	-11.1246
▁今年もいっぱい	-11.1247
再現	-11.1248
▁松	-11.1249
許せ	-11.125
白目	-11.1251
グレ	-11.1252
俺に	-11.1253
世間	-11.1253
りぃ	-11.1253
SO	-11.1254
まふ	-11.1254
積み	-11.1255
ろく	-11.1255
駆け	-11.1255
頂けて	-11.1256
っぽく	-11.1256
▁変な	-11.1257
▁アッ	-11.1257
多いから	-11.1258
履いて	-11.1259
できますように	-11.1259
油断	-11.126
くらいは	-11.1261
解説	-11.1261
局	-11.1262
創作	-11.1262
▁おっは	-11.1264
マウント	-11.1264
すみませんでした	-11.1264
卓	-11.1265
綺麗で	-11.1266
にしてる	-11.1268
だったんだけど	-11.1268
▁いってらっしゃい	-11.1268
は全く	-11.1269
買えない	-11.1269
時とか	-11.1271
┛	-11.1271
覚醒	-11.1271
勤	-11.1272
お値段	-11.1274
ァァァ	-11.1275
かっこ	-11.1277
▁いいですね	-11.1277
会員	-11.1277
わせて	-11.1279
가	-11.1279
入ります	-11.128
非常に	-11.1281
で良ければ	-11.1282
色んな人	-11.1283
の前に	-11.1283
あったかくして	-11.1284
やってみて	-11.1284
んでしょうか	-11.1285
▁お疲れさまです	-11.1287
イチャイチャ	-11.1287
まこ	-11.1288
のお店	-11.1289
ハァ	-11.1289
行けた	-11.129
と思いながら	-11.1291
ゆっくり休んでくださいね	-11.1292
牡蠣	-11.1295
▁みんなおやすみ	-11.1297
迫	-11.1298
おいしかった	-11.1299
通って	-11.13
噛み	-11.1301
૭	-11.1303
試して	-11.1305
ia	-11.1305
は難しい	-11.1307
凝	-11.1307
吸	-11.131
票	-11.1311
拳	-11.1311
のツイ	-11.1311
▁早い	-11.1311
👼🏻	-11.1312
有名な	-11.1312
崩れ	-11.1314
すごいですね	-11.1315
ちゃんさん	-11.1317
教えてくれてありがとう	-11.1318
▁感謝	-11.1319
年で	-11.1319
教える	-11.132
渡す	-11.132
有難い	-11.132
▁̇*	-11.1321
さわ	-11.1321
お散歩	-11.1324
刺	-11.1326
🥹💖	-11.1328
好きに呼んで	-11.1331
♬.*゚	-11.1331
🥇	-11.1331
💞💞💞	-11.1332
尚更	-11.1332
主人公	-11.1333
になれば	-11.1336
▁こちらこそいつも	-11.1336
羨まし	-11.1337
▁うい	-11.1338
発狂	-11.1341
失礼いたします	-11.1341
すまん	-11.1341
お話して	-11.1343
bi	-11.1346
機会が	-11.1346
になろう	-11.1347
場面	-11.1348
でよかった	-11.1349
関係なく	-11.1349
一週間	-11.1349
は明日	-11.135
止めて	-11.135
敬	-11.135
⸝⸝)	-11.135
😒	-11.1351
ちは	-11.1352
とは思って	-11.1353
▁がんばって	-11.1353
おさ	-11.1354
ɞ	-11.1355
▁しろ	-11.1355
素敵ですね	-11.1356
シッ	-11.1357
`❁)	-11.1357
クル	-11.1358
`。)	-11.136
ではないです	-11.136
▁そのうち	-11.1361
んだっけ	-11.1361
▁23	-11.1362
ノノ	-11.1362
落として	-11.1362
包	-11.1364
現象	-11.1364
期限	-11.1364
ツー	-11.1365
55	-11.1365
▁ともちゃん	-11.1367
身体が	-11.1367
あとで	-11.1367
▁旦那さん	-11.1368
▁病院	-11.137
SU	-11.137
輝	-11.1372
の推し	-11.1373
▁みゆ	-11.1373
気になってた	-11.1375
羅	-11.1375
我が	-11.1376
ハロ	-11.1377
あったり	-11.1377
デコ	-11.1378
呑	-11.1378
は大丈夫	-11.1378
作戦	-11.1379
▁その時は	-11.1379
捕まえ	-11.1379
抑え	-11.138
*.゚	-11.138
頂ける	-11.1381
かと思ってた	-11.1381
γ	-11.1382
ふー	-11.1383
さすがです	-11.1387
余韻	-11.1388
とおもう	-11.1388
喋り	-11.1388
いずれ	-11.1388
近々	-11.1389
ひゃ	-11.1389
状	-11.139
あの人	-11.1391
灯	-11.1391
作成	-11.1392
分かってる	-11.1393
⋆͛	-11.1397
イケボ	-11.1399
江	-11.14
安心しました	-11.14
ロード	-11.1401
話してた	-11.1404
動け	-11.1404
▁東	-11.1406
▁昨年	-11.1407
染み	-11.1407
レジ	-11.1408
なきゃいけない	-11.1408
灬	-11.141
って思ったら	-11.141
貸	-11.1411
ˋ*	-11.1411
🎄🤍	-11.1412
あるかな	-11.1413
無理しないで	-11.1414
みみ	-11.1414
黒い	-11.1414
▁来年こそは	-11.1414
やってくれる	-11.1417
ワッ	-11.1418
▁フ	-11.1418
▁ワタシ	-11.142
▁すい	-11.142
▁空	-11.1421
に決まってる	-11.1421
かと思って	-11.1421
ポー	-11.1422
照れる	-11.1423
られるの	-11.1425
選んだ	-11.1425
▁それに	-11.1425
ナス	-11.1426
言うこと	-11.1426
HO	-11.1427
ピアス	-11.1428
36	-11.1429
▁喉	-11.143
ごろ	-11.1431
あったか	-11.1432
こちらこそよろしくお願いします	-11.1435
ジャニーズ	-11.1436
の夜	-11.1437
ちか	-11.1438
この時間	-11.1438
やらん	-11.144
溜め	-11.1441
になってきた	-11.1442
▁ひー	-11.1442
きゃわ	-11.1443
▁わい	-11.1444
本当は	-11.1444
妖精	-11.1445
めろ	-11.1446
エレ	-11.1448
くんおはよ	-11.1449
プチ	-11.145
毎	-11.1451
EX	-11.1452
デイ	-11.1453
おすすめです	-11.1454
su	-11.1454
▁長	-11.1456
できるよう	-11.1457
残念です	-11.1458
まらない	-11.1458
入ったら	-11.1459
それなら	-11.1459
香り	-11.1459
行けそう	-11.146
方面	-11.1461
愛で	-11.1461
騒	-11.1461
遅くまで	-11.1463
ヒョ	-11.1464
頑張ってくださいね	-11.1464
出会った	-11.1464
▁よければ	-11.1465
張って	-11.147
えむ	-11.1471
前日	-11.1472
はあるけど	-11.1474
▁今日も宜しくお願いします	-11.1474
～😭	-11.1474
ブー	-11.1474
当たらない	-11.1475
リア充	-11.1477
したくて	-11.1478
送料	-11.1479
🐻‍❄️	-11.1481
からもう	-11.1482
シンプル	-11.1485
沸	-11.1486
▁お休み	-11.1486
入れない	-11.1489
並びに	-11.149
os	-11.149
決勝	-11.149
にしたら	-11.1491
ゆったり	-11.1491
サバ	-11.1492
かわいすぎ	-11.1494
ホロ	-11.15
してもらう	-11.15
ヾノ	-11.1504
▁個人的には	-11.1504
▁̑̑	-11.151
あみ	-11.1512
キさん	-11.1513
流行り	-11.1514
からさ	-11.1514
バブ	-11.1515
ぜー	-11.1519
本垢	-11.152
▁なんでも	-11.1521
でやって	-11.1521
流行	-11.1521
パーツ	-11.1524
▁≖	-11.1526
してくれるの	-11.1526
何となく	-11.1527
息子が	-11.1527
呼ばれて	-11.1528
姿勢	-11.1528
◍)	-11.1529
楽しみにしてるよ	-11.153
通勤	-11.1531
こだわり	-11.1533
募	-11.1534
▁じゅん	-11.1536
サラダ	-11.1536
こえ	-11.1536
どんな感じ	-11.1538
▁いいえ	-11.1539
▁大好き	-11.154
あいつ	-11.1543
1/1	-11.1543
ニン	-11.1544
思ってます	-11.1545
┏○	-11.1546
郵送	-11.1546
ᕗ	-11.1546
〜🫶	-11.1547
🤤💕	-11.1547
視点	-11.1549
チル	-11.155
楽し	-11.1552
てるから	-11.1555
でぇ	-11.1555
君も	-11.1557
▁今週	-11.1558
辞める	-11.1558
̅	-11.1558
▁あゆ	-11.1559
フルーツ	-11.1559
ませんね	-11.1562
遅く	-11.1562
縦	-11.1563
静	-11.1563
迷	-11.1563
なんとお呼びしたらいいですか	-11.1564
占い	-11.1565
黙って	-11.1565
前まで	-11.1565
怒	-11.1566
をありがとう	-11.1566
次に	-11.1567
💬	-11.1567
案内	-11.1568
どちらも	-11.157
出来るの	-11.1574
みたいなやつ	-11.1575
グロ	-11.1575
モス	-11.1576
過ぎます	-11.1577
🎶🎶	-11.1577
撮	-11.1579
飾って	-11.158
おでん	-11.1582
ポスター	-11.1582
中学	-11.1583
다	-11.1583
撮れ	-11.1589
してくれてる	-11.1589
😭💖	-11.1592
超えて	-11.1592
想像して	-11.1592
心強い	-11.1594
らしいから	-11.1594
断酒	-11.1595
ちんちん	-11.1595
ガッ	-11.1596
ロウ	-11.1597
俺ら	-11.1597
▁人生	-11.1604
書いてる	-11.1606
了	-11.1607
▁have	-11.1608
飽き	-11.1609
焼け	-11.161
早朝	-11.161
を楽しみに	-11.1612
エピソード	-11.1612
安心した	-11.1613
成果	-11.1613
いいかも	-11.1614
ときます	-11.1615
長女	-11.1617
▁上	-11.1617
併せ	-11.1618
ギア	-11.1618
きー	-11.1619
やーん	-11.1619
∩)	-11.1619
寝たら	-11.162
感じます	-11.1625
と思いつつ	-11.1627
逢	-11.1629
宣伝	-11.1629
年下	-11.1631
▁西	-11.1633
繋がれて	-11.1633
あるのか	-11.1634
仕事は	-11.1635
ひっ	-11.1635
誰かに	-11.1636
イルミネーション	-11.1637
ペコッ	-11.1639
観戦	-11.164
遭遇	-11.1641
介護	-11.1641
日曜	-11.1642
素晴らしいです	-11.1642
暫く	-11.1643
岸	-11.1645
▁おはみ	-11.1648
ツンデレ	-11.1649
▁アニメ	-11.165
となり	-11.1651
気にせず	-11.1653
汚れ	-11.1654
大量に	-11.1654
行ってきた	-11.1656
って思います	-11.1657
는	-11.1658
▁キャ	-11.1659
忍	-11.166
超絶	-11.1664
こっちも	-11.1664
ร	-11.1666
そうなんですね	-11.1666
うれしかった	-11.167
いれて	-11.1672
▁また明日	-11.1672
▁今年もお世話になりました	-11.1673
豊	-11.1674
手間	-11.1674
▁かん	-11.1675
レッド	-11.1675
ファイ	-11.1675
空港	-11.1675
▁16	-11.1678
げる	-11.1679
取れない	-11.1682
零	-11.1682
アリガト	-11.1683
▁カラオケ	-11.1685
ドウ	-11.1686
ないのよ	-11.1687
やばすぎ	-11.1687
*ˊ	-11.1687
▁け	-11.1688
も素敵	-11.1688
買ったら	-11.1689
ちゅん	-11.1691
▁ヨシ	-11.1691
省	-11.1692
稼ぐ	-11.1692
良いなぁ	-11.1692
(⸝⸝	-11.1696
👐	-11.1697
症	-11.17
良いです	-11.1701
▁すいません	-11.1702
きますね	-11.1704
なあかん	-11.1704
なめ	-11.1705
ってくらい	-11.1712
ーター	-11.1714
徳	-11.1716
┌	-11.1716
～🤣	-11.1716
寒すぎて	-11.1717
▁てん	-11.1717
揺れ	-11.1717
聴いた	-11.1719
直前	-11.1719
の関係	-11.1719
了解です	-11.172
思え	-11.1722
ねこさん	-11.1722
ぉぉぉぉ	-11.1723
▁↓	-11.1724
医	-11.1725
▁ヒロ	-11.1726
に出会えて	-11.1726
レシピ	-11.1728
ミッション	-11.1729
頑張るぞ	-11.1729
るような	-11.173
▁ぺ	-11.1732
ദി	-11.1733
キャンセル	-11.1733
▁おまえ	-11.1734
半端ない	-11.1736
してもいい	-11.1737
▁タ	-11.1738
聞こえ	-11.1738
プル	-11.1742
相棒	-11.1742
ウェイ	-11.1742
てい	-11.1743
りす	-11.1743
ルさん	-11.1743
▁メ	-11.1745
じい	-11.1745
奥様	-11.1746
卒	-11.1747
最新	-11.1749
人です	-11.175
取れた	-11.1751
ライス	-11.1752
みゃ	-11.1753
譲	-11.1755
(^^;	-11.1757
エナ	-11.1757
儀	-11.1758
大変ですね	-11.1758
実況	-11.1758
浴び	-11.176
下の	-11.1761
キッ	-11.1762
▁何で	-11.1763
やさしい	-11.1764
寒いので	-11.1765
▁ル	-11.1766
ですっ	-11.1767
こも	-11.1767
立派な	-11.1768
少しは	-11.1768
するよね	-11.1768
▁どうも	-11.1769
▁お先に	-11.177
の一	-11.177
ドライブ	-11.177
身内	-11.1771
🥰❤️	-11.1771
が大好き	-11.1772
続いて	-11.1775
やぞ	-11.1778
うちら	-11.1778
呟いて	-11.178
▁のんびり	-11.178
❤️‍🔥❤️‍🔥❤️‍🔥	-11.1781
ay	-11.1783
めた	-11.1783
▁やったぜ	-11.1785
あおい	-11.1785
ゲン	-11.1786
月末	-11.1787
▁g	-11.1788
くー	-11.1788
🌈✨	-11.1789
(???)	-11.1793
付近	-11.1793
▁ー̀	-11.1793
ども	-11.1796
▁勉強	-11.1796
使わせて	-11.1798
眠気	-11.1798
💖✨	-11.1799
▁̆`	-11.1801
繋がりましょ	-11.1802
食べてない	-11.1803
われた	-11.1804
いるのか	-11.1804
控え	-11.1805
▁ステキな	-11.1805
時間かかる	-11.1806
らら	-11.1807
𓂂	-11.1807
粒	-11.1808
HappyNewYear	-11.1808
歌声	-11.1811
サマ	-11.1811
ということは	-11.1813
面白くて	-11.1814
凶	-11.1816
やられた	-11.1816
なんだかんだ	-11.1818
ネットで	-11.1821
呼びタメ大歓迎ですので	-11.1821
▁しょう	-11.1822
させていただいて	-11.1822
アンチ	-11.1822
お先にフォロー失礼します	-11.1823
たいけど	-11.1823
いっか	-11.1827
何気に	-11.1828
mm	-11.1828
大根	-11.1829
らなかった	-11.1829
って呼ぶね	-11.183
˂	-11.1832
per	-11.1832
の時の	-11.1833
収入	-11.1833
お薬	-11.1833
るだけで	-11.1833
▁あず	-11.1834
トモ	-11.1835
子供たち	-11.1835
年内に	-11.1836
皆で	-11.1837
回転	-11.1837
౪	-11.1838
▁なにそれ	-11.1838
ろうと	-11.1839
🤣✨	-11.184
あげてください	-11.1841
集まる	-11.1841
ぽよ	-11.1842
ヴァロ	-11.1843
しゃーない	-11.1844
行かせて	-11.1845
座り	-11.1849
サボ	-11.1849
たちの	-11.185
ググ	-11.1851
フィギュア	-11.1855
晒	-11.1855
▁25	-11.1856
ps	-11.1856
よかったよ	-11.1857
してくれたら	-11.1858
あるか	-11.186
▁雨	-11.1861
おまえ	-11.1864
なさすぎて	-11.1864
転生	-11.1865
予定が	-11.1865
あんた	-11.1866
生まれて	-11.1866
▁関西	-11.1867
ᐪ	-11.1868
ないんだ	-11.1869
▁ゆうちゃん	-11.1873
兼	-11.1876
かれた	-11.1876
以上の	-11.1879
▁スプラ	-11.1879
▁ねむ	-11.1881
サイド	-11.1883
良し	-11.1885
きたから	-11.1885
してると	-11.1886
寝正月	-11.1886
一択	-11.1887
▁了解しました	-11.1888
▁りょーかい	-11.1888
🏿	-11.1889
羊	-11.1889
...()	-11.1891
思わない	-11.1892
ないな	-11.1894
決まり	-11.1894
腸	-11.1897
が増える	-11.1897
🤎	-11.1897
お伺い	-11.1897
るんですね	-11.1898
▁みんなおはよ	-11.1898
かと思いました	-11.1898
大分	-11.1899
にゅ	-11.19
何個	-11.1902
聞いてる	-11.1902
正月休み	-11.1903
ニヤッ	-11.1903
幸せを	-11.1905
やったけど	-11.1905
汚い	-11.1907
選手権お願いします	-11.1907
ジョー	-11.1908
ありがとぉ	-11.1909
賑やか	-11.191
🏃‍♂️	-11.1911
事で	-11.1911
リム	-11.1912
れなかった	-11.1914
栗	-11.1914
制服	-11.1915
にしようかな	-11.1918
コーラ	-11.1918
親近感	-11.1919
▁れん	-11.1922
ご心配	-11.1925
これからもよろしく	-11.1927
ようと	-11.1929
って名前	-11.1929
どうも	-11.193
漏れ	-11.1931
シル	-11.1931
ò	-11.1931
と思ってたけど	-11.1932
含めて	-11.1932
▁┃	-11.1934
井さん	-11.1934
▁ゆっくり休んで	-11.1934
の雰囲気	-11.1935
おば	-11.1936
越し	-11.1938
⇄	-11.194
▁今夜	-11.1943
ドリンク	-11.1943
叶	-11.1944
かわからん	-11.1945
▁ここで	-11.1946
見てくれてありがとう	-11.1947
▁楽しく	-11.1948
してるのに	-11.1948
スヤァ	-11.1948
獣	-11.1948
に会う	-11.1949
▁初詣	-11.195
聞か	-11.1953
‹‹\(	-11.1954
喋って	-11.1954
により	-11.1957
好感度	-11.1957
の楽しみ	-11.1958
からしたら	-11.196
なんですけどね	-11.1961
▁のんちゃん	-11.1961
da	-11.1962
勿論	-11.1962
ヤッ	-11.1962
▁たまたま	-11.1964
に近い	-11.1964
💙💙	-11.1965
チリ	-11.1966
新鮮	-11.1967
朝まで	-11.1967
内緒	-11.1968
いただく	-11.1969
めちゃくちゃ可愛い	-11.1969
無理です	-11.1969
かんじ	-11.197
銃	-11.197
隠れ	-11.1971
みたいなので	-11.1972
色が	-11.1972
厄	-11.1973
▁la	-11.1974
行くわ	-11.1974
まわり	-11.1975
待っててね	-11.1975
▁ただの	-11.1977
彼ら	-11.1977
うな	-11.1977
始まり	-11.1978
'`	-11.1979
しちゃ	-11.1981
🥺💗	-11.1981
楽しんでいきましょう	-11.1982
難しそう	-11.1983
聞こえて	-11.1984
▁・∇・)	-11.1987
もらお	-11.1988
初見	-11.1988
バズ	-11.1988
アタシ	-11.1988
うっかり	-11.1989
後ほど	-11.1989
あげるよ	-11.1992
仲良くしましょ	-11.1992
🤩✨	-11.1992
かもですが	-11.1993
どれくらい	-11.1994
(゚	-11.1997
子に	-11.1997
混ぜ	-11.1997
こういうの	-11.1998
人って	-11.1998
配達	-11.1998
手元に	-11.1999
...🫠	-11.1999
たこ焼き	-11.2
▁yu	-11.2
嬉しいですね	-11.2001
フォトナ	-11.2001
アメ	-11.2002
仲良くして下さい	-11.2002
タレ	-11.2002
▁年賀状	-11.2002
経って	-11.2004
忙しそう	-11.2004
。&	-11.2005
楽しめた	-11.2005
する時	-11.2005
art	-11.2005
あちこち	-11.2006
▁本当は	-11.2007
巡	-11.2008
涼	-11.2008
は全然	-11.2009
▁ツイート	-11.2009
ずる	-11.2011
ᄋ	-11.2013
話しかけ	-11.2014
打った	-11.2014
͈⁎)	-11.2015
iPad	-11.2017
に参加	-11.2019
いますよ	-11.202
政	-11.202
々しい	-11.2022
ムー	-11.2022
部屋の	-11.2025
きなこ	-11.2026
バレて	-11.2026
創	-11.2027
わたくし	-11.2027
スペースで	-11.2027
めの	-11.2028
るはず	-11.2028
きそう	-11.2029
どうなる	-11.203
ラテ	-11.2031
ワーイ	-11.2032
아	-11.2032
のぉ	-11.2032
以外で	-11.2034
カマ	-11.2034
楽しみにしてますね	-11.2035
99	-11.2036
▁どういたしまして	-11.2038
したくなる	-11.2039
わかんないけど	-11.2044
可愛い子	-11.205
▁わし	-11.205
のキャラ	-11.2051
0%	-11.2051
なくちゃ	-11.2051
わか	-11.2052
▁関東	-11.2052
こともある	-11.2052
求	-11.2052
遅くなりました	-11.2053
年上	-11.2053
気もする	-11.2054
ちょん	-11.2054
逃げる	-11.2054
▁).	-11.2055
の塊	-11.2056
最後は	-11.2057
\)	-11.2058
わ笑	-11.2058
エモ	-11.2058
~❕	-11.2059
聞け	-11.206
▁si	-11.2062
つま	-11.2063
▁この後	-11.2064
▁ゆめ	-11.2064
🤙	-11.2064
ご飯食べて	-11.2064
何事も	-11.2066
▁ゆか	-11.2068
染め	-11.2068
.1	-11.2068
もお	-11.2069
なのですね	-11.2069
際は	-11.2069
▁誤反応	-11.207
年だった	-11.2071
SP	-11.2073
▁年内	-11.2073
資格	-11.2073
大好物	-11.2074
いたしました	-11.2074
会った時	-11.2076
オススメです	-11.2077
┐	-11.2077
仕事初め	-11.2078
コタツ	-11.208
効率	-11.208
ガラ	-11.208
全ての	-11.2082
𐤔𐤔𐤔	-11.2082
メリ	-11.2084
ミラ	-11.2085
杏	-11.2086
😱💦	-11.2088
▁北	-11.2089
のファン	-11.2091
食べ過ぎ	-11.2092
▁らぶ	-11.2093
稼働	-11.2095
ふざけ	-11.2099
うんこ	-11.21
行けます	-11.21
しげ	-11.21
そんなもん	-11.2101
迷って	-11.2101
繋がる	-11.2102
ユニバ	-11.2103
暑	-11.2105
ワイワイ	-11.2106
飲めない	-11.2106
しかった	-11.2106
好きすぎる	-11.2107
お楽しみ	-11.2108
今日もよろしくお願いします	-11.2108
作ります	-11.2109
▁but	-11.2109
フォローさせて頂きました	-11.211
元気になって	-11.211
剥	-11.2111
届けて	-11.2111
のリプ	-11.2111
頂きたいです	-11.2113
の後	-11.2114
そうなんだ	-11.2115
に来た	-11.2115
もかわいい	-11.2116
中華	-11.2117
たよね	-11.2118
ぴさん	-11.2119
眠り	-11.212
本名	-11.212
よくない	-11.2121
時過ぎ	-11.2121
多すぎ	-11.2122
風が	-11.2122
マサ	-11.2124
あの時	-11.2124
来なかった	-11.2125
しさ	-11.2125
療養	-11.2125
▁あけまして	-11.2125
アド	-11.2127
なりますね	-11.2127
▁↑	-11.2127
スゴイ	-11.2129
一昨日	-11.213
お金が	-11.213
会えなかった	-11.213
やめる	-11.2132
さんのツイート	-11.2133
早すぎ	-11.2133
機械	-11.2134
強すぎる	-11.2135
みたかった	-11.2135
溢れる	-11.2136
▁そうね	-11.2136
▁わた	-11.2137
会議	-11.2137
になれて	-11.2138
玄関	-11.2138
降る	-11.2139
嬉しく	-11.2141
やられて	-11.2141
準備して	-11.2141
めんどい	-11.2143
側の	-11.2143
悔し	-11.2145
bo	-11.2146
どうせ	-11.2146
酷く	-11.2147
属性	-11.2147
健康で	-11.215
先週	-11.2151
盛り上がり	-11.2152
たしか	-11.2152
読書	-11.2153
ソウ	-11.2153
そうだし	-11.2155
▁with	-11.2157
WWWW	-11.2158
お久しぶり	-11.2158
!💪	-11.216
議	-11.2161
持つ	-11.2164
怖いです	-11.2164
゚ー゚	-11.2166
踊って	-11.2168
下がる	-11.2168
りながら	-11.2169
ヲタク	-11.2169
楽しいよ	-11.217
ウィン	-11.217
▁引き続き	-11.2172
도	-11.2173
ガール	-11.2173
▁this	-11.2173
んだろうなぁ	-11.2175
▁そうなんですか	-11.2176
振って	-11.2176
ヘイ	-11.2177
拝	-11.2177
▁鼻	-11.2179
お買い物	-11.218
TT	-11.2181
嬉しいよね	-11.2181
ぱぱ	-11.2184
会いに行く	-11.2185
になるよ	-11.2185
るために	-11.2186
ハマって	-11.2186
ハンバーグ	-11.2186
バリバリ	-11.2187
豆腐	-11.2187
暇な	-11.2188
きちゃった	-11.2188
たって	-11.2189
並ぶ	-11.2191
▁りょう	-11.2191
告	-11.2192
全然違う	-11.2192
▁like	-11.2195
・゚	-11.2198
が痛い	-11.22
ご自愛ください	-11.2201
今年も宜しく	-11.2202
気づく	-11.2203
柱	-11.2204
ステッカー	-11.2204
どんだけ	-11.2206
お二人	-11.2207
▁́▽`)/	-11.2207
並べ	-11.221
ゆえ	-11.2212
うちわ	-11.2212
ちゅう	-11.2215
est	-11.2216
人だけ	-11.2216
耐久	-11.2217
潰れ	-11.2217
僕に	-11.2217
地雷	-11.2218
飲もう	-11.2219
AB	-11.2219
たまらない	-11.222
▁ゆっ	-11.2221
来年もどうぞよろしくお願いします	-11.2222
ぺこ	-11.2224
▁久しぶり	-11.2224
がいて	-11.2224
くらいなら	-11.2225
🍭	-11.2226
呼	-11.2226
まぁまぁ	-11.2226
漁	-11.2227
ヤマ	-11.2228
くれると	-11.2228
野さん	-11.2228
親友	-11.2229
頑張るね	-11.223
悲しみ	-11.2235
不思議な	-11.2237
側に	-11.2239
呼んだ	-11.2239
ウザ	-11.2243
なれる	-11.2244
お供	-11.2244
ちゃんお疲れ様	-11.2245
都内	-11.2246
気づかなかった	-11.2247
認め	-11.2248
見ても	-11.2249
すきです	-11.2249
よーー	-11.2252
熊	-11.2252
ペンラ	-11.2254
ノーマル	-11.2254
気にして	-11.2254
▁on	-11.2254
ショウ	-11.2255
フィー	-11.2255
⚠️	-11.2257
過ごせて	-11.2257
やつです	-11.226
凄	-11.2262
フォロバありがとうございます	-11.2264
近所の	-11.2264
実力	-11.2265
の作品	-11.2266
子の	-11.2269
トム	-11.2271
なところ	-11.2272
飲まない	-11.2274
いかがでしょうか	-11.2275
たくなります	-11.2277
社会人	-11.2278
▁がんば	-11.2279
いたよ	-11.228
悩んだ	-11.228
年末の	-11.228
しなければ	-11.2281
盛り上げて	-11.2281
というのは	-11.2282
さんなら	-11.2284
最高すぎる	-11.2286
忘れない	-11.2286
価	-11.2287
の中の	-11.2287
リボン	-11.2288
スキン	-11.2289
あるのかな	-11.229
さないように	-11.2291
悪化	-11.2292
ありがたや	-11.2292
年の瀬	-11.2292
見てくれて	-11.2292
崩壊	-11.2293
ほっぺ	-11.2295
火曜日	-11.2295
クロス	-11.2295
ござい	-11.2298
ベン	-11.2299
ぁぁあ	-11.2299
▁ka	-11.2299
縛り	-11.2301
どこも	-11.2302
笑える	-11.2303
痛くて	-11.2303
パパさん	-11.2304
リーグ	-11.2305
感激	-11.2306
いいい	-11.2307
したん	-11.2307
本来	-11.2308
それだけで	-11.2308
ぐれ	-11.2308
モヤモヤ	-11.231
パジャマ	-11.231
いなくて	-11.231
外から	-11.2311
🍴	-11.2311
ぃー	-11.2313
˃	-11.2313
くまさん	-11.2314
いないので	-11.2315
おそろ	-11.2315
先生が	-11.2315
😘😘	-11.2316
レベルで	-11.2316
...😌	-11.2319
▁全員	-11.2319
人目	-11.2319
乗ってる	-11.232
声かけ	-11.232
出してる	-11.2323
お声掛けありがとうございます	-11.2324
造	-11.2326
させてもらいます	-11.2326
寝ろ	-11.2329
しましょー	-11.2329
こじ	-11.2329
付ける	-11.2329
なんて呼んだらいい	-11.233
犯	-11.233
あくまで	-11.2331
お前が	-11.2331
‿	-11.2331
個人的には	-11.2331
⸜	-11.2332
疲れてる	-11.2332
えろ	-11.2333
まくってる	-11.2334
ことがある	-11.2335
に見えて	-11.2335
おもちゃ	-11.2336
ってなに	-11.2336
しておく	-11.2338
嬉しいけど	-11.2339
┊	-11.2339
無くなって	-11.2341
小さく	-11.2341
る事	-11.2342
ってコト	-11.2342
ღ	-11.2345
またよろしくお願いします	-11.2345
お言葉に甘えて	-11.2348
ちゃダメ	-11.2348
つの	-11.2348
聴きたい	-11.2349
ME	-11.2349
パンパン	-11.2349
テーブル	-11.235
良いの	-11.235
😡😡😡	-11.2352
よろしくねー	-11.2353
硬	-11.2353
さんお疲れ様です	-11.2354
😭💗	-11.2355
のクリスマス	-11.2355
無いから	-11.2356
▁みや	-11.2357
▁🤍🎄	-11.2358
▁今年も仲良くしてね	-11.2359
埋まって	-11.236
たぬ	-11.236
を感じ	-11.236
ろよ	-11.236
▁おっけー	-11.2361
可愛いよ	-11.2361
るところ	-11.2362
▁最初は	-11.2364
▁僕が	-11.2366
Ф	-11.2367
ค	-11.2367
じゃー	-11.2367
ちゃってる	-11.237
るって	-11.237
☺️❤️	-11.237
手伝って	-11.2372
いただきたいです	-11.2372
)⊃	-11.2372
ちら	-11.2374
ぐら	-11.2374
林	-11.2375
話そうね	-11.2376
おわった	-11.2376
オリジナル	-11.2376
疑問	-11.2376
年以上	-11.2377
重ね	-11.2378
はいつ	-11.2379
すき焼き	-11.2381
モブ	-11.2381
えら	-11.2381
出すの	-11.2381
チキ	-11.2382
着てる	-11.2383
無いです	-11.2385
とうとう	-11.2385
;◡	-11.2386
が止まらない	-11.2386
パーク	-11.2387
貯め	-11.2387
誕生日おめでとう	-11.2389
そうに	-11.239
るよう	-11.2393
▁夜勤	-11.2393
▁でしょ	-11.2394
気をつけてくださいね	-11.2394
塗って	-11.2396
さん達	-11.2396
ゆっくりしてね	-11.2397
東北	-11.2397
やっても	-11.2398
日中	-11.2398
素敵なクリスマス	-11.2399
の影響	-11.2401
真顔	-11.2402
吐	-11.2404
イエ	-11.2404
似たような	-11.2404
150	-11.2404
への愛	-11.2406
するために	-11.2407
モンハン	-11.2409
▁さや	-11.2409
だからな	-11.2409
▁・`	-11.2409
来年はもっと	-11.2409
すぎました	-11.241
ハラ	-11.2411
さんあけおめです	-11.2411
セル	-11.2413
悪口	-11.2415
静かに	-11.2416
スカート	-11.2417
しといた	-11.2418
▁待ってる	-11.242
ヤー	-11.2421
▁深夜	-11.2423
年ぶり	-11.2424
買ってきた	-11.2426
方と	-11.2427
メルカリ	-11.2427
🫥	-11.243
▁わざわざ	-11.2432
まぢ	-11.2433
目は	-11.2433
▁ボク	-11.2434
したいね	-11.2438
ヤダ	-11.2442
払って	-11.2443
録音	-11.2444
さや	-11.2445
しっぽ	-11.2445
▁というか	-11.2447
ꕀ	-11.2448
もふ	-11.2449
リレー	-11.245
私のこと	-11.2453
実写	-11.2455
▁あやちゃん	-11.2456
去年は	-11.2456
タク	-11.2457
🍔	-11.2457
通報	-11.2458
くるから	-11.2459
布教	-11.2459
進めて	-11.246
▁イベント	-11.246
の画像	-11.2461
▁普通の	-11.2461
良い子	-11.2463
カモ	-11.2463
みそ	-11.2465
行為	-11.2466
者が	-11.2467
らちゃん	-11.2469
▁ゆうさん	-11.247
職場の	-11.247
開き	-11.2471
うさちゃん	-11.2472
治って	-11.2472
▁割と	-11.2472
難しいです	-11.2473
問い合わせ	-11.2475
美味かった	-11.2476
遊べ	-11.2479
の前	-11.248
回は	-11.2482
絡も	-11.2482
be	-11.2484
閉	-11.2485
こな	-11.2486
▁めりくり	-11.2487
▁あま	-11.2487
簡単な	-11.2487
とこに	-11.2489
知らない人	-11.2489
年くらい	-11.2489
足が	-11.249
うさん	-11.2491
さないと	-11.2493
👂	-11.2493
ヶ	-11.2494
引っ越し	-11.2494
👴	-11.2497
ビビ	-11.2498
DE	-11.2498
っていうの	-11.2499
なんだが	-11.2501
ことあります	-11.2502
紅茶	-11.2503
ee	-11.2504
oO	-11.2504
ケロ	-11.2504
ーク	-11.2505
はっきり	-11.2505
😆❤️	-11.2506
もらってます	-11.2506
▁元旦	-11.2507
共通	-11.2508
手袋	-11.2512
▁ソ	-11.2513
待	-11.2515
起こして	-11.2516
かれて	-11.2516
しとこ	-11.2517
住んでる	-11.2518
あげよう	-11.2518
の差	-11.2519
言ってない	-11.2519
ちく	-11.2521
╹)	-11.2521
魅力的	-11.2522
何度	-11.2522
前で	-11.2523
きま	-11.2526
達に	-11.2527
なかよく	-11.2527
良すぎて	-11.2528
パル	-11.2529
昨年は	-11.2529
お嬢	-11.2531
岡山	-11.2531
ほっと	-11.2533
浅	-11.2534
出さない	-11.2535
迷った	-11.2536
推しは	-11.2538
ちゃん達	-11.254
消える	-11.2541
壊れ	-11.2544
キッチン	-11.2548
釣	-11.2548
どうなって	-11.2548
と信じて	-11.2549
襲	-11.255
業者	-11.255
BIG	-11.2552
パフォーマンス	-11.2552
ა	-11.2552
びー	-11.2554
ましょー	-11.2555
お会いしたいです	-11.2557
▁デ	-11.2561
召喚	-11.2561
すごいよね	-11.2561
申し	-11.2561
▁大丈夫だよ	-11.2561
ンダー	-11.2562
トラブル	-11.2562
ホビ	-11.2562
▁身体	-11.2563
po	-11.2565
⌑	-11.2565
⏰	-11.2565
笑ってる	-11.2565
青春	-11.2567
来てくれ	-11.2568
証明	-11.2569
シャワー	-11.257
であり	-11.257
後ろに	-11.257
すま	-11.2571
ちょいちょい	-11.2572
となる	-11.2573
組み合わせ	-11.2574
▁寒いから	-11.2574
タケ	-11.2574
ポンコツ	-11.2575
いいのかな	-11.2576
触り	-11.2578
お呼び	-11.2579
鍛え	-11.258
だしね	-11.258
手渡し	-11.2581
わけで	-11.2581
見に行く	-11.2583
だなー	-11.2584
▁わたしの	-11.2584
▁今日もよろしくです	-11.2585
飛躍	-11.2585
みたいだから	-11.2586
使わ	-11.2587
▁́。•	-11.2587
娘に	-11.2587
`」	-11.2589
ッキ	-11.2592
oo	-11.2595
めり	-11.2595
ཀ	-11.2597
さんあけおめ	-11.2598
フラグ	-11.26
一日を	-11.26
皇	-11.2601
構いません	-11.2602
暗い	-11.2604
キット	-11.2604
過ごします	-11.2605
きち	-11.2606
支えて	-11.2606
お昼寝	-11.2607
冷め	-11.2607
頑張りましょうね	-11.2607
～～～～	-11.2608
大雪	-11.2608
年末年始は	-11.261
ルン	-11.261
700	-11.2611
(^^)/	-11.2612
翌日	-11.2613
だけだよ	-11.2614
^`)	-11.2615
うらやま	-11.2616
にするか	-11.2619
いっそ	-11.262
性能	-11.2622
ごめんよ	-11.2622
無限に	-11.2623
達の	-11.2624
しまったので	-11.2625
ゆちゃん	-11.2628
味覚	-11.2628
かぶ	-11.2628
接種	-11.263
流石です	-11.263
映画館	-11.2631
ねむ	-11.2632
なくなります	-11.2632
▁既に	-11.2636
ますけど	-11.2638
熱は	-11.2638
くっ	-11.2639
寒そう	-11.264
ミリ	-11.264
ものの	-11.2641
お会いできて	-11.2641
▁モ	-11.2644
やべぇ	-11.2645
最終的に	-11.2646
▁少しでも	-11.2646
変わります	-11.2646
亀	-11.2647
💣	-11.2647
🌼*・	-11.2648
流し	-11.2648
特定	-11.2648
🥰🫶	-11.2651
が楽しみです	-11.2652
濃厚	-11.2652
送れ	-11.2653
に会いたい	-11.2654
故	-11.2654
▁映画	-11.2655
してしまい	-11.2655
✩.*	-11.2656
んじゃね	-11.2656
ツイートに	-11.2657
気になり	-11.2657
緊張して	-11.2658
コッ	-11.2659
りょう	-11.2659
してくれない	-11.266
!!️✨	-11.266
仕上げ	-11.2661
に会える	-11.2662
いかが	-11.2662
va	-11.2663
にゃんこ	-11.2664
黄	-11.2665
神奈川	-11.2666
に合わせて	-11.2666
焦って	-11.2666
▁17	-11.2667
頑張ってきます	-11.2668
ぐる	-11.2668
素晴らし	-11.267
菌	-11.267
外れ	-11.267
▁あざす	-11.267
ないよう	-11.267
▁おはゆ	-11.2671
ヒーロー	-11.2671
おはリプ	-11.2672
(,,	-11.2673
-1	-11.2673
応援する	-11.2673
▁今日も素敵な	-11.2674
らしいので	-11.2674
脈	-11.2675
⁠(⁠	-11.2675
見かけたら	-11.2676
スタンド	-11.2677
ハナ	-11.2677
診断	-11.2679
やんな	-11.268
バチ	-11.2681
ないのは	-11.2681
職場で	-11.2683
よろしい	-11.2683
服装	-11.2684
▁𓂂𓏸	-11.2684
ゆく	-11.2684
と思	-11.2685
▁🧧	-11.2686
がんばり	-11.2686
おつかれさまでした	-11.2686
ちょーだい	-11.2686
美味しそうです	-11.2686
映え	-11.2687
▁お母さん	-11.2688
やき	-11.2688
ヘッ	-11.2689
▁「......	-11.2691
時間の	-11.2691
そう思う	-11.2692
に入れ	-11.2693
死にそう	-11.2693
リハビリ	-11.2693
早く会いたい	-11.2694
ってるの	-11.2694
レット	-11.2694
おおおおおお	-11.2697
障	-11.2698
何よりです	-11.2699
☃	-11.2699
に対する	-11.27
居ます	-11.27
👈	-11.2702
;))	-11.2702
撃ち	-11.2705
撮りたい	-11.2705
使いたい	-11.2705
どうぞ宜しくお願いします	-11.2707
次元	-11.2707
見かけ	-11.2708
▁へへ	-11.2708
リプして	-11.271
いないから	-11.271
クト	-11.271
レート	-11.271
まれて	-11.271
ばいい	-11.2711
やろうね	-11.2711
▁おはようございま	-11.2712
見かけた	-11.2712
朝ごはん	-11.2713
寒いです	-11.2713
ぬん	-11.2713
🥺🫶	-11.2715
マップ	-11.2717
ますよーに	-11.2717
イジ	-11.2719
入りたい	-11.2719
▁ありがとね	-11.272
よろしくお願いしま	-11.2721
いいのよ	-11.2721
描くの	-11.2725
▁なぎ	-11.2726
ニャー	-11.2726
クリぼっち	-11.2726
ねむい	-11.2726
イベントで	-11.2731
行っても	-11.2731
寒いけど	-11.2732
みが	-11.2732
忘れずに	-11.2733
取れて	-11.2733
個性	-11.2734
ᅠ	-11.2735
ウソ	-11.2735
話そう	-11.2735
▁公式	-11.2735
の可能性	-11.2736
わかるよ	-11.2736
(←	-11.2737
!←	-11.2738
水曜日	-11.2739
混乱	-11.274
君に	-11.2741
戻る	-11.2741
オイル	-11.2741
めで	-11.2742
▁ホ	-11.2743
▁おつかれさまです	-11.2744
酢	-11.2744
まあまあ	-11.2744
なんとかなる	-11.2744
👮	-11.2744
貫	-11.2745
なんだけどね	-11.2746
▁おはようです	-11.2746
😭✨✨	-11.2746
同じような	-11.2746
んだぞ	-11.2747
強め	-11.2747
ั	-11.2748
ぴん	-11.275
ブランド	-11.2751
駐車場	-11.2753
お会いした	-11.2754
クリスマスに	-11.2754
配信する	-11.2755
何時	-11.2757
梨	-11.2757
lu	-11.2757
パッ	-11.2758
替	-11.2758
▁女の子	-11.2759
器用	-11.2762
▁おせち	-11.2763
誘う	-11.2763
がんばれー	-11.2764
煽り	-11.2764
光栄です	-11.2766
テレビで	-11.2766
えええええ	-11.2767
会いたいです	-11.2767
絞	-11.2769
お喋り	-11.2769
奇	-11.2772
その他	-11.2772
そうだよ	-11.2773
▁ありがとうね	-11.2774
▁Thank	-11.2775
生まれた	-11.2776
▁No	-11.2778
...🤤	-11.2778
まて	-11.2778
!!!!!!!!!!!!	-11.2779
買ったの	-11.2779
イさん	-11.278
ヒロ	-11.2781
楽しみましょ	-11.2781
爺	-11.2781
垢で	-11.2782
乗せて	-11.2782
しかないです	-11.2783
ᐛ	-11.2783
いちゃう	-11.2785
閉じ	-11.2785
の部分	-11.2786
てぃー	-11.2786
めっちゃわかる	-11.2787
足を	-11.2787
抜く	-11.2787
ないこと	-11.2787
▁ぎゃ	-11.2788
▁楽しみにしてます	-11.2789
暑い	-11.2789
ってくる	-11.2789
あさ	-11.279
ぴょんぴょん	-11.2791
言ってました	-11.2791
の匂い	-11.2792
あるんだけど	-11.2792
▁印象	-11.2792
!!!!!!!!!!!!!!	-11.2793
組み	-11.2794
無敵	-11.2794
瓶	-11.2795
つよつよ	-11.2795
≧∀≦)	-11.2799
▁さい	-11.2801
プー	-11.2801
⤵️	-11.2802
でしたよね	-11.2802
お渡し	-11.2803
ございま	-11.2804
🍳	-11.2804
寝起き	-11.2806
～💦	-11.2806
▁良いお年をお迎え下さい	-11.2809
🥦	-11.2809
📷	-11.2809
内に	-11.281
た方がいい	-11.2812
年目	-11.2813
長時間	-11.2814
になったの	-11.2814
(˶'	-11.2814
大好きだから	-11.2815
空き	-11.2816
シンプルに	-11.2816
ge	-11.2817
激しい	-11.2817
ないんです	-11.2819
››	-11.2819
いたけど	-11.2821
忙しかった	-11.2822
我慢して	-11.2822
(*゚∀゚*)	-11.2823
▁えーん	-11.2823
外に出	-11.2826
出ます	-11.2827
莉	-11.2828
開ける	-11.2829
するまで	-11.283
LA	-11.283
が大事	-11.2831
顔で	-11.2832
💛💛	-11.2834
▁どれも	-11.2834
やめてください	-11.2835
ってのは	-11.2837
繋がってる	-11.2837
行った時	-11.2838
うううう	-11.2838
▁見た目	-11.2839
ネーム	-11.284
もらえると	-11.284
何度か	-11.284
クリスマスを	-11.2841
子供の頃	-11.2841
カさん	-11.2842
ja	-11.2843
意識して	-11.2843
つよい	-11.2843
WWWWWW	-11.2844
で買った	-11.2847
元日	-11.2851
かれる	-11.2851
くれてた	-11.2852
ちょうどいい	-11.2852
くれると嬉しい	-11.2853
初めて見た	-11.2853
▁早起き	-11.2853
飲みに	-11.2853
나	-11.2856
▁今日もよろしく	-11.2856
hiro	-11.2856
▁夜は	-11.2857
身体に	-11.2859
▁交換	-11.2859
年もよろしくお願いします	-11.286
合わせる	-11.2861
楽しんでる	-11.2861
然	-11.2864
それはそれで	-11.2864
メリット	-11.2864
この度はよろしくお願い致します	-11.2864
時間半	-11.2865
もともと	-11.2865
息子くん	-11.2866
無しで	-11.2866
半日	-11.2866
▁19	-11.2866
強そう	-11.2867
チャット	-11.2868
とのこと	-11.2869
髪色	-11.287
れてない	-11.2871
してないから	-11.2872
視聴	-11.2872
交換できる	-11.2874
わろた	-11.2874
タクシー	-11.2875
〜🫶🏻	-11.2876
心も	-11.2876
ピカ	-11.2876
テク	-11.2877
列目	-11.2878
▁TL	-11.2879
概念	-11.2879
されてない	-11.288
晴れて	-11.2881
凄いですね	-11.2882
るとこ	-11.2883
ナちゃん	-11.2883
DVD	-11.2884
こちらでも	-11.2884
露	-11.2884
思い出す	-11.2884
あむ	-11.2884
OW	-11.2886
▁えっと	-11.2887
表紙	-11.2887
治った	-11.2889
お前は	-11.2889
`*)⸝	-11.289
めちゃん	-11.2892
社員	-11.2893
土下座	-11.2893
仕事も	-11.2893
いぶ	-11.2893
▁さすがです	-11.2894
喋れ	-11.2894
与	-11.2894
判	-11.2895
していい	-11.2895
けどな	-11.2896
▁髪	-11.2897
🤤✨	-11.2897
条	-11.2897
頑張れば	-11.2897
吸って	-11.2897
～😂	-11.2899
止まらない	-11.2899
楽しいよね	-11.29
訪れ	-11.29
のお陰で	-11.29
どうかな	-11.29
もう一回	-11.29
うーん	-11.2901
良い年	-11.2904
▁゚∀	-11.2904
はほぼ	-11.2904
▁ありがとぉ	-11.2904
▁来年もよろしくお願いいたします	-11.2905
*。	-11.2906
しっかりと	-11.2907
みるく	-11.291
殴り	-11.2912
お大事にね	-11.2913
言おう	-11.2914
先の	-11.2914
∧	-11.2915
するな	-11.2917
の場合	-11.2917
解散	-11.2918
chan	-11.2918
一年に	-11.2919
獄	-11.292
頻度	-11.2922
らっしゃる	-11.2923
▁久しぶりの	-11.2925
ent	-11.2926
んだなぁ	-11.2928
まるで	-11.2929
お節	-11.293
お財布	-11.293
ではある	-11.293
🫶🏻💕	-11.2931
しゃべ	-11.2931
☔️	-11.2932
出てない	-11.2932
も含めて	-11.2932
(⸝⸝⸝	-11.2933
尚	-11.2934
心は	-11.2935
▁さー	-11.2935
無くなった	-11.2937
=͟͟͞͞(	-11.2937
やるから	-11.2938
えぐ	-11.2938
꜀(	-11.2939
るんだよ	-11.294
いるのに	-11.294
やすくて	-11.294
願望	-11.2941
おはツイ	-11.2941
検	-11.2942
皆さま	-11.2944
遊んでね	-11.2944
ルド	-11.2946
▁とりま	-11.2946
置く	-11.2946
怒って	-11.295
構	-11.2951
ないでね	-11.2951
▁今週もよろしくお願いします	-11.2952
呟き	-11.2953
されると	-11.2953
お過ごし下さい	-11.2954
昼寝	-11.2955
池袋	-11.2955
だか	-11.2955
途中から	-11.2957
してみました	-11.2958
京セラ	-11.2959
がいちばん	-11.296
休める	-11.2962
角度	-11.2963
蟹	-11.2963
女神	-11.2964
実物	-11.2964
ビッグ	-11.2964
でやる	-11.2965
マヨ	-11.2965
大好きで	-11.2965
ルナ	-11.2967
▁今のところ	-11.2967
会ったら	-11.2968
🙀	-11.2969
🐓	-11.2969
子達	-11.297
世界に	-11.297
▁スーパー	-11.2971
書け	-11.2971
乙女	-11.2971
例え	-11.2972
停	-11.2973
૮	-11.2973
安静に	-11.2975
ときの	-11.2976
なそう	-11.2978
▁妹	-11.2978
▁can	-11.298
お待ちください	-11.298
▁男	-11.2981
二日酔い	-11.2983
とぅ	-11.2984
がよく	-11.2984
▁頑張った	-11.2986
すごいな	-11.2986
掛けて	-11.2986
美味しいよ	-11.2987
ディス	-11.2988
たのね	-11.2989
迷惑かけ	-11.2991
護	-11.2991
▁お大事になさってください	-11.2992
ご丁寧に	-11.2994
欲しいもの	-11.2995
漢	-11.2996
動画を	-11.2996
こま	-11.2997
▁星	-11.2999
ポロ	-11.3
ひー	-11.3001
▁́o	-11.3001
ヒト	-11.3002
に行ったら	-11.3002
疑	-11.3004
こないだ	-11.3004
同意	-11.3004
見てきた	-11.3005
▁0	-11.3006
😁😁😁	-11.3006
気付いた	-11.3006
の笑顔	-11.3006
わかりやすい	-11.3008
挑	-11.301
辞めて	-11.301
▁are	-11.301
稼げる	-11.301
うさぎさん	-11.3012
を感じて	-11.3012
おめでとう祝️	-11.3014
いじめ	-11.3016
お話したい	-11.3016
スペシャル	-11.3017
私です	-11.3017
方で	-11.3018
理解して	-11.3018
崩	-11.3018
入場	-11.3019
▁年末に	-11.3019
回目の	-11.302
▁楽しそう	-11.302
脂	-11.3021
潔	-11.3021
になってから	-11.3023
呼ばせて	-11.3023
狭	-11.3024
▁最近の	-11.3025
記載	-11.3026
この後	-11.3026
みんちゃん	-11.3028
カイロ	-11.3029
気付か	-11.303
そんなん	-11.303
ひよ	-11.303
에	-11.303
ハーフ	-11.303
下手くそ	-11.3032
会えるの楽しみにしてる	-11.3034
コメントありがとうございます	-11.3034
そうかな	-11.3035
今年はお世話になりました	-11.3035
🦭	-11.3035
ノート	-11.3039
みゆ	-11.3039
◦`):	-11.304
チョイス	-11.304
こんど	-11.3041
道を	-11.3041
仰	-11.3042
宝物	-11.3042
🙄🙄	-11.3045
たんの	-11.3046
でしたー	-11.3049
いっつも	-11.305
トライ	-11.3051
▁⊂	-11.3054
😐	-11.3054
たくなった	-11.3054
だよねぇ	-11.3054
しよーね	-11.3055
だあ	-11.3055
並み	-11.3056
ぁぁぁぁぁ	-11.3057
応え	-11.3057
が早い	-11.3058
エク	-11.3059
なんやけど	-11.306
わざと	-11.3061
常識	-11.3061
かち	-11.3065
むか	-11.3065
あったの	-11.3065
しようぜ	-11.3065
好きに	-11.3066
って思ったけど	-11.307
▁⠀	-11.307
で大丈夫です	-11.307
な事	-11.307
に入った	-11.3071
来てた	-11.3071
▁́▽`	-11.3072
るほど	-11.3076
ひなた	-11.3076
▁みお	-11.3076
てほしい	-11.3076
無理せずに	-11.3076
☁	-11.3076
🍕	-11.3078
は全部	-11.3079
ふみ	-11.3082
🔫	-11.3083
両親	-11.3084
じゃぁ	-11.3084
ツンツン	-11.3084
不要	-11.3086
▁なっちゃん	-11.3086
▁ちび	-11.3089
▁昨日も	-11.3089
済む	-11.3089
全然大丈夫です	-11.309
見られ	-11.3091
のが一番	-11.3092
▁それにしても	-11.3092
🍁	-11.3092
ったよ	-11.3093
お母様	-11.3093
的にも	-11.3094
▁lo	-11.3094
調べた	-11.3095
処	-11.3095
繋いで	-11.3098
がんばりましょう	-11.31
であって	-11.31
いないの	-11.3101
しゅー	-11.3102
難しいですよね	-11.3102
てゃ	-11.3102
着替え	-11.3103
ボード	-11.3104
▁ピ	-11.3104
どこかの	-11.3106
(。-	-11.3106
翼	-11.3107
ヒョン	-11.3108
下さって	-11.3108
連打	-11.3109
ろさん	-11.3111
어	-11.3111
つな	-11.3112
させてもらって	-11.3112
真面目	-11.3112
副反応	-11.3112
磨	-11.3113
分かんない	-11.3114
sh	-11.3115
サンド	-11.3115
ぇぇぇぇ	-11.3117
完凸	-11.3117
▁突然	-11.3118
マッサージ	-11.3119
どっかで	-11.3122
吹	-11.3122
おそらく	-11.3123
たくさんお話し	-11.3125
を使う	-11.3125
メタ	-11.3127
エグい	-11.3127
ボーイ	-11.3129
数が	-11.3129
夢に	-11.3132
▁31	-11.3133
▁)✨	-11.3133
▁紫	-11.3135
▁ワシ	-11.3136
甲	-11.314
を知って	-11.3141
少なくとも	-11.3142
めさん	-11.3142
ユンギ	-11.3143
😱😱	-11.3148
かわよ	-11.3149
めちゃくちゃ嬉しい	-11.315
の思い出	-11.315
冒険	-11.315
加減	-11.315
解禁	-11.3151
ローソン	-11.3151
やつですね	-11.3152
ホンマ	-11.3152
の女	-11.3152
美味しいの	-11.3152
全てが	-11.3153
▁お取引のためフォロー	-11.3153
負けない	-11.3154
▁どした	-11.3154
ふぉろ	-11.3155
ちゃお	-11.3155
▁ヨシヨシ	-11.3157
ーーーーーーー	-11.3158
さす	-11.3159
ドンキ	-11.316
たくさんある	-11.3161
猫さん	-11.3162
⸜❤︎⸝‍	-11.3162
止まって	-11.3163
当たったら	-11.3163
🙄🙄🙄	-11.3163
スゴ	-11.3164
┗	-11.3164
🌳	-11.3165
も無い	-11.3166
送るね	-11.3167
報酬	-11.3169
해	-11.3169
依存	-11.3169
pa	-11.3171
パイセン	-11.3173
特殊	-11.3174
てえ	-11.3181
系は	-11.3181
セラ	-11.3181
しようと思って	-11.3182
nt	-11.3184
見つける	-11.3184
こは	-11.3184
▁電車	-11.3184
楽しんできて	-11.3187
ようになりました	-11.3188
精一杯	-11.3189
ちっちゃい	-11.3191
体の	-11.3191
グミ	-11.3192
なかったり	-11.3193
季	-11.3193
なんじゃ	-11.3193
目の前に	-11.3194
▁うふふ	-11.3195
フォン	-11.3195
した人	-11.3196
▁꒪	-11.3196
人が多い	-11.3197
よね笑	-11.3197
ó̴̶̷̥	-11.3198
ないのが	-11.3199
WWWWW	-11.3201
▁彼氏	-11.3202
弁当	-11.3203
心配です	-11.3204
▁わか	-11.3205
きもい	-11.3207
くらいまで	-11.3209
やりたいです	-11.3211
YU	-11.3212
ご参加	-11.3212
▁;∀;)	-11.3213
なんでしょうね	-11.3214
※	-11.3214
ぱち	-11.3215
ノノ゙	-11.3216
ウォー	-11.3217
☺️👍	-11.3217
さむい	-11.3218
留	-11.3218
何の	-11.3218
たんですけど	-11.3221
└(	-11.3224
という事	-11.3224
大丈夫そう	-11.3225
─	-11.3225
求めて	-11.3228
リオ	-11.3228
切れて	-11.3231
かりん	-11.3232
軒	-11.3232
ほどほどに	-11.3233
統一	-11.3233
使ってます	-11.3235
後日	-11.3237
と思っている	-11.3237
UP	-11.3238
ました笑	-11.3239
ハンター	-11.3239
ck	-11.3241
疲労	-11.3242
際に	-11.3246
体感	-11.3246
出したら	-11.3247
って呼んでください	-11.3247
死んでる	-11.3248
IC	-11.3248
良すぎ	-11.3249
ナリ	-11.325
▁こちらこそお世話になりました	-11.325
▁こっちも	-11.325
あほ	-11.3251
ちゃうから	-11.3251
ファンサ	-11.3252
•。`)	-11.3253
抜かれ	-11.3253
土曜	-11.3254
いきますね	-11.3255
間に合わ	-11.3256
蹴	-11.3256
🐝	-11.3257
プライベート	-11.3257
たのしかった	-11.3258
なんだって	-11.326
さんとの	-11.3261
府	-11.3261
¬	-11.3262
完走	-11.3262
策	-11.3263
ってきた	-11.3265
お声がけありがとうございます	-11.3265
せいか	-11.3265
人から	-11.3266
した方がいい	-11.3266
🍟	-11.3266
ᕱ	-11.3266
紐	-11.3266
自ら	-11.3267
゚ロ゚	-11.3267
特別な	-11.3271
帰れる	-11.3271
ย	-11.3271
抜群	-11.3271
有る	-11.3272
38	-11.3277
^-^	-11.3277
を考えて	-11.3277
回答	-11.3278
守り	-11.3278
させて頂いて	-11.3279
こちらこそありがとう	-11.3279
りますように	-11.3279
(ˆ꜆	-11.3281
できるか	-11.3282
くんを	-11.3284
伸びる	-11.3284
並んでる	-11.3285
要らない	-11.3285
経済	-11.3286
ヘン	-11.3287
狭い	-11.3287
も楽しい	-11.3288
▁みぃ	-11.329
ゆっくりして	-11.3291
アザ	-11.3291
変わらん	-11.3291
言っても	-11.3292
きのこ	-11.3293
粘	-11.3293
像	-11.3294
してみて	-11.3295
中心	-11.3296
世界一	-11.3297
惜しい	-11.3297
めんどくさ	-11.3298
オバ	-11.33
呼びタメ大歓迎です	-11.33
っていうか	-11.33
▁ご検討	-11.3301
ラッ	-11.3302
▁͜	-11.3302
ガラス	-11.3304
張	-11.3305
生誕	-11.3305
지	-11.3305
の結果	-11.3308
対面	-11.3308
わんこ	-11.3308
されたい	-11.3309
ED	-11.331
知る	-11.331
いだ	-11.3311
かもしれないです	-11.3314
旦那様	-11.3315
何だか	-11.3316
銀行	-11.3317
って思いながら	-11.3318
施設	-11.332
▁来年もたくさん	-11.3321
ルイ	-11.3321
湧いて	-11.3321
人形	-11.3321
👍🏻👍🏻	-11.3321
ところから	-11.3323
密かに	-11.3324
ごとに	-11.3324
ウケ	-11.3325
も全部	-11.3327
必死に	-11.3328
お任せ	-11.3328
終わらない	-11.3329
親が	-11.3329
é	-11.333
▁いきなり	-11.333
だけが	-11.3332
使い方	-11.3333
ァァ	-11.3334
の形	-11.3334
宗	-11.3334
チッ	-11.3335
皆さんの	-11.3335
たんですが	-11.3335
二度と	-11.3335
お洒落	-11.3336
見たよ	-11.3338
▁こちらこそだよ	-11.3338
・᷄	-11.3338
がすごく	-11.3339
🎴	-11.334
ڡ	-11.334
ウタ	-11.334
だめだ	-11.334
オカ	-11.3341
陰キャ	-11.3341
教えてくれ	-11.3341
メンヘラ	-11.3342
してたのに	-11.3344
甘いもの	-11.3344
ることが	-11.3345
みに	-11.3346
だけなら	-11.3347
けた	-11.335
飛	-11.335
化して	-11.3351
そんな事	-11.3352
描いてる	-11.3352
どうぞ宜しくお願い致します	-11.3355
よろしくお願い申し上げます	-11.3357
カオス	-11.3358
ごく	-11.3358
手段	-11.3358
〜🤤	-11.3358
プロセカ	-11.3359
▁おか	-11.3361
面白	-11.3361
被害	-11.3363
▁あとで	-11.3364
▁l	-11.3364
プロフィール	-11.3364
˖	-11.3364
ぶつ	-11.3365
も大丈夫	-11.3365
良いよ	-11.3365
頑張ってくる	-11.3366
修	-11.3367
買ってきて	-11.3369
お前の	-11.3369
どこの	-11.3369
だけじゃなくて	-11.3371
▁素敵な一年になりますように	-11.3371
容量	-11.3371
くんありがとう	-11.3371
仲良くなれて	-11.3373
同時に	-11.3374
▁あらま	-11.3374
稼いで	-11.3375
ストレート	-11.3375
仲良くなりたい	-11.3377
おかしく	-11.3377
うー	-11.3377
してもらった	-11.3378
😎👍	-11.338
▁みく	-11.3381
▁逆	-11.3381
ハマる	-11.3381
設	-11.3383
笑っちゃった	-11.3383
滝	-11.3384
もまだ	-11.3385
😍❤️	-11.3386
出来てない	-11.3387
▁プロ	-11.3387
怖くない	-11.3388
▁お祝い	-11.3389
美味しいです	-11.3389
分は	-11.3389
濡れ	-11.339
ゆるりと	-11.339
の使い方	-11.3392
🌠	-11.3394
会長	-11.3394
をたくさん	-11.3395
材料	-11.3396
持て	-11.3397
はあります	-11.3397
しますが	-11.34
ボックス	-11.3402
ニュー	-11.3402
もちゃんと	-11.3407
✨️✨️	-11.3407
ラク	-11.3408
場で	-11.341
なりません	-11.341
くらいから	-11.3411
のお取引	-11.3412
ハニ	-11.3412
▁はー	-11.3413
▁鬼	-11.3414
テラ	-11.3415
▁結果	-11.3415
▁ここまで	-11.3416
ひとりで	-11.3416
♥️♥️♥️	-11.3417
髭	-11.3419
📺	-11.3419
展示	-11.3419
飲ま	-11.3419
▁以前	-11.342
素敵な一日を	-11.3422
やりとり	-11.3422
こりゃ	-11.3424
▁みさ	-11.3424
付く	-11.3425
雷	-11.3427
▁眠い	-11.3428
となって	-11.3429
🍲	-11.3429
見つけられ	-11.3429
美味し	-11.3429
持ってきて	-11.3431
💢💢	-11.3433
🤡	-11.3433
急遽	-11.3434
三連休	-11.3434
かと思ったら	-11.3436
にいた	-11.3438
教えてね	-11.3438
▁京都	-11.3438
▁あんた	-11.3439
るまで	-11.3439
ニヤ	-11.344
🙌🏻💕	-11.3441
が少ない	-11.3441
▁ドキドキ	-11.3442
清楚	-11.3443
運が	-11.3444
止まらん	-11.3445
来れ	-11.3447
▁普通	-11.3449
▁ひろさん	-11.345
お仕事お疲れ様	-11.3452
╯	-11.3453
▁́°	-11.3453
狩	-11.3454
様子見	-11.3456
すぅ	-11.3456
幸せでした	-11.3456
抱えて	-11.3456
好きじゃない	-11.3456
年中	-11.3457
〜🍀	-11.3458
ミュート	-11.3458
こんな時間	-11.3464
嬉しすぎます	-11.3466
▁なおちゃん	-11.3466
⚡	-11.3467
そうなんです	-11.3467
ことが多い	-11.3468
がちで	-11.3469
と良いですね	-11.347
えい	-11.347
ܸ	-11.347
出来事	-11.3471
足元	-11.3473
▁ふぁ	-11.3473
っき	-11.3473
ドラゴン	-11.3474
せんせ	-11.3474
HP	-11.3475
会社に	-11.3475
って呼ぶ	-11.3476
誰だ	-11.3478
祈って	-11.3478
▁ふく	-11.3478
達は	-11.3478
なんて呼べばいいかな	-11.3478
▁良かったです	-11.3479
それくらい	-11.348
のアカウント	-11.3481
おわり	-11.3481
怪	-11.3482
▁na	-11.3483
だけなので	-11.3483
も多い	-11.3484
になっちゃって	-11.3485
持ってく	-11.3486
が好きな	-11.3487
例えば	-11.3487
悠	-11.3488
雑誌	-11.3488
明日から仕事	-11.3489
タダ	-11.349
日頃	-11.3493
呼びます	-11.3494
感動した	-11.3495
お前ら	-11.3495
ぷら	-11.3496
出来てる	-11.3498
察	-11.3498
私にも	-11.3499
針	-11.35
眺め	-11.35
···	-11.35
自体は	-11.3501
お願いして	-11.3503
スの	-11.3503
嬉しいお言葉	-11.3504
こっちは	-11.3509
きぃ	-11.3509
▁本日も宜しくお願いします	-11.3511
を取り	-11.3512
ところも	-11.3512
多そう	-11.3512
させて下さい	-11.3513
に出て	-11.3514
お疲れ様だよ	-11.3514
やけ	-11.3515
しなさい	-11.3515
楽天	-11.3516
午後から	-11.3517
芸人	-11.3517
もらえるの	-11.3519
せば	-11.352
使うの	-11.3521
▁そうなん	-11.3524
疲れが	-11.3524
主張	-11.3524
んっ	-11.3525
よろしゅう	-11.3526
引っ	-11.3526
財	-11.3527
▁お大事にね	-11.3527
物が	-11.3528
掘り	-11.3528
▁かわい	-11.3529
いくつ	-11.3529
ばかりです	-11.3529
も沢山	-11.3532
イイネ	-11.3535
出せない	-11.3535
運用	-11.3536
きたので	-11.3537
🤗💕	-11.3537
ことです	-11.3539
それ以上	-11.3539
録	-11.3541
まってます	-11.3542
ないですが	-11.3542
ミさん	-11.3542
⁠`⁠*⁠)	-11.3543
ヂ	-11.3543
'⌯)	-11.3543
会い	-11.3547
こんばんわ	-11.3548
▁自	-11.3548
さっぱり	-11.3548
見つめ	-11.3549
祈	-11.355
頂きありがとうございました	-11.3551
どら	-11.3552
焦った	-11.3553
アレンジ	-11.3553
効く	-11.3553
の感想	-11.3553
\\\\	-11.3556
気になってる	-11.3557
イロ	-11.3558
わからんけど	-11.3558
!!!!(	-11.3559
終わらせ	-11.356
どっ	-11.356
追いかけ	-11.356
ゆか	-11.356
近くで	-11.3561
エヴァ	-11.3561
どちらか	-11.3562
のお写真	-11.3562
ベー	-11.3563
どき	-11.3563
今日で	-11.3564
ぽむ	-11.3567
ぁん	-11.3569
・`*)	-11.3572
男女	-11.3572
フランス	-11.3573
ex	-11.3574
家族と	-11.3577
はどこ	-11.3577
▁明後日	-11.3577
いる人	-11.3578
が怖い	-11.3578
できてよかった	-11.3579
▁Ma	-11.3579
・・・・	-11.3579
▁po	-11.3579
配信は	-11.3582
▁ふわふわ	-11.3583
の方の	-11.3583
ほんとうに	-11.3584
くらいです	-11.3585
✧︎	-11.3586
サーモン	-11.3586
▁good	-11.3586
ゆめ	-11.3586
*°	-11.3587
になりますよね	-11.3587
拾	-11.3588
▁腰	-11.3588
飛ばして	-11.3588
最近の	-11.3589
man	-11.359
おいた	-11.3591
叶え	-11.3591
好きなもの	-11.3591
にとっては	-11.3592
たんだ	-11.3594
アプデ	-11.3594
▁たく	-11.3595
持った	-11.3597
おしり	-11.3597
▁最悪	-11.3597
大歓迎です	-11.3598
の民	-11.3598
気持ちよく	-11.3598
机	-11.3598
▁コンビニ	-11.3598
🏃‍♀️	-11.3599
ッパ	-11.36
ぴょ	-11.36
歓迎	-11.3601
どうでもいい	-11.3603
逝	-11.3603
缶バッジ	-11.3604
が出た	-11.3604
ドコ	-11.3604
---	-11.3605
▁昔は	-11.3606
▁残念ながら	-11.3606
気がしない	-11.3607
ミク	-11.3608
泣け	-11.3608
JK	-11.3608
が凄い	-11.3608
∑(	-11.3608
🎹	-11.3609
😾	-11.3609
マリカ	-11.361
呼びやすいように呼んで	-11.3612
チョロ	-11.3613
▁食べ	-11.3613
。。。。	-11.3613
演技	-11.3614
起きれ	-11.3616
まともに	-11.3617
ピク	-11.362
お世話になります	-11.3621
生え	-11.3622
伸びて	-11.3623
☹️	-11.3624
やるなら	-11.3624
宝くじ	-11.3624
▁͗	-11.3624
▁タメ	-11.3624
頼み	-11.3625
けない	-11.3626
せつ	-11.3628
れるように	-11.3629
通信	-11.3629
冬は	-11.363
キツ	-11.363
▁オー	-11.3631
本体	-11.3631
フー	-11.3632
休暇	-11.3632
シコ	-11.3633
▁̈*•.	-11.3634
▁was	-11.3634
エッチ	-11.3634
▁うま	-11.3634
有給	-11.3635
捨てて	-11.3636
この間	-11.3637
クズ	-11.3638
観に	-11.3639
んす	-11.3639
ぴったり	-11.3639
あなたが	-11.364
選ば	-11.3641
突入	-11.3642
▁かわ	-11.3642
▁そんなん	-11.3643
😂👍	-11.3643
ング	-11.3643
比	-11.3643
ギャグ	-11.3643
この度は	-11.3643
ᗨ	-11.3644
下さる	-11.3646
らへん	-11.3646
れるの	-11.3646
祈る	-11.3647
ダム	-11.3649
見ちゃう	-11.365
▁誰も	-11.365
しまくり	-11.3651
あちゃ	-11.3652
えば	-11.3653
宜しければ	-11.3654
どういうこと	-11.3655
▁べ	-11.3656
コちゃん	-11.3656
pp	-11.3657
痛かった	-11.3658
してしまって	-11.3659
勝手	-11.3659
記念日	-11.3659
とか色々	-11.366
▁仕事始め	-11.366
▁はあ	-11.3661
呼ばれる	-11.3661
のじゃ	-11.3662
少々	-11.3663
んぱ	-11.3665
KP	-11.3666
主義	-11.3666
言わん	-11.3667
??(	-11.3668
素直	-11.3668
▁おはおは	-11.3668
突っ込んで	-11.3668
に手を	-11.3669
させて頂いてもよろしいでしょうか	-11.3669
いいんだ	-11.3671
悪かった	-11.3671
▁ねね	-11.3672
ボチボチ	-11.3674
偏見	-11.3675
って書いて	-11.3675
もいいけど	-11.3676
一発	-11.3676
帳	-11.3679
幼	-11.368
(^∇^)	-11.3681
してあげる	-11.3681
▁ちゅ	-11.3682
行ったり	-11.3682
しかないですね	-11.3682
姿が	-11.3683
しよしよ	-11.3683
▁あと少し	-11.3683
ちゃんって呼ぶね	-11.3683
どこから	-11.3683
デジタル	-11.3685
どり	-11.3685
入れたら	-11.3686
レッ	-11.3686
▁おやすみっ	-11.3687
▁おはー	-11.3687
なち	-11.3688
▁明けまして	-11.3688
リック	-11.3688
食べれない	-11.3688
んだら	-11.3689
❀.(*	-11.3689
名前が	-11.3689
↔	-11.3689
してそう	-11.369
していない	-11.3692
😂)	-11.3693
応援しています	-11.3695
✌️✌️	-11.3695
ネップリ	-11.3695
ワンピース	-11.3696
場所に	-11.3697
込まれ	-11.3698
花火	-11.37
快適	-11.37
させてもらいました	-11.3701
▁ももちゃん	-11.3702
スさん	-11.3703
効	-11.3703
みょん	-11.3704
キュンキュン	-11.3706
あすか	-11.3706
見かける	-11.3706
がまだ	-11.3707
ヒー	-11.3707
キャラクター	-11.3707
しまくって	-11.3708
聞ける	-11.3708
ふぁい	-11.371
ᆺ	-11.371
後遺症	-11.371
スコ	-11.371
救い	-11.3711
生地	-11.3711
可愛らしい	-11.3713
てー	-11.3713
滑	-11.3714
〜」	-11.3714
買い出し	-11.3715
らないと	-11.3717
恐縮です	-11.3717
がないと	-11.3718
エロい	-11.3719
才	-11.3723
ーーーーん	-11.3724
あなたは	-11.3725
刺さる	-11.3725
注目	-11.3726
伝えたい	-11.3727
ビビり	-11.373
▁みんなが	-11.373
なくない	-11.3731
おきたい	-11.3732
なくなっちゃう	-11.3732
▁ココ	-11.3732
出汁	-11.3733
ちんこ	-11.3734
これからも仲良くしてね	-11.3735
肝	-11.3735
弥	-11.3735
暴走	-11.3736
事ある	-11.3737
話は	-11.3737
ぜんぶ	-11.3739
あるんですか	-11.3741
ルル	-11.3741
天国	-11.3741
年ありがとうございました	-11.3741
ak	-11.3743
他の方	-11.3743
はとても	-11.3743
しますので	-11.3744
楽しさ	-11.3744
コリ	-11.3745
充実	-11.3746
っつん	-11.3746
取引	-11.3746
怒る	-11.3748
長かった	-11.3748
🙅	-11.375
▁やめて	-11.375
徐々に	-11.3751
を過ごしてね	-11.3751
👋😃	-11.3753
ami	-11.3754
ラグ	-11.3754
▁いくら	-11.3754
川さん	-11.3754
晴	-11.3754
ありすぎて	-11.3755
ボイ	-11.3755
なぁって	-11.3756
遊びに来て	-11.3757
🙇‍♀️🙇‍♀️	-11.3758
安心感	-11.376
脂肪	-11.3761
ことになる	-11.3762
ちょろ	-11.3764
娘は	-11.3765
😘😘😘	-11.3768
の方と	-11.3768
▁こちらこそ宜しくお願いします	-11.3769
🤔💭	-11.3771
ボロボロ	-11.3771
▁最後まで	-11.3773
似た	-11.3773
木曜日	-11.3774
ます笑	-11.3774
NE	-11.3775
のんちゃん	-11.3775
▁そういうこと	-11.378
が可愛い	-11.378
ボロ	-11.378
丈	-11.3781
テロ	-11.3781
やってました	-11.3782
▁先生	-11.3784
導	-11.3785
ピッタリ	-11.3786
さっそく	-11.3786
奢って	-11.3786
出来ません	-11.3786
コイン	-11.3788
うちの子	-11.3789
の会話	-11.3789
良くなる	-11.3789
偉	-11.3789
シマ	-11.379
くなってる	-11.3791
ご希望	-11.3793
▁1000	-11.3795
はさすがに	-11.3796
🙏✨🙏	-11.3796
こんにち	-11.3796
しおり	-11.3797
つば	-11.3797
🧑‍🎄	-11.3797
モニ	-11.3797
は少し	-11.3799
▁嫁	-11.38
ブン	-11.38
▁それか	-11.3801
▁なんだかんだ	-11.3801
서	-11.3802
気配	-11.3802
癒やされ	-11.3803
最大	-11.3804
ハリ	-11.3804
インド	-11.3805
さんのイラスト	-11.3806
になりましたね	-11.3807
▁午後も	-11.3807
🧚‍♀️	-11.3807
いまだに	-11.3808
うますぎ	-11.381
ラフ	-11.381
🥹🙏	-11.3812
～😍	-11.3812
教えて欲しい	-11.3812
認定	-11.3812
度も	-11.3814
ばぁ	-11.3814
迷ってる	-11.3815
そう言う	-11.3816
ここは	-11.3817
▁それだけ	-11.3817
るべき	-11.3817
伴	-11.3817
が入って	-11.3819
まくった	-11.382
🏻‍♀️	-11.3821
スタジオ	-11.3822
🤦‍♂️	-11.3823
グー	-11.3824
になるか	-11.3824
今年こそ	-11.3824
▁テレビ	-11.3825
観てる	-11.3825
pr	-11.3825
隙間	-11.3826
今年最後	-11.3826
▁先程	-11.3827
きら	-11.3827
教えて下さい	-11.3828
やったから	-11.3829
〜🥲	-11.3832
丁度	-11.3832
事ない	-11.3833
wwwwwwwwwwwwwww	-11.3834
諸々	-11.3834
沼に	-11.3835
ふじ	-11.3836
立てて	-11.3837
zu	-11.3837
▁つい	-11.3838
💀	-11.3838
よろしくお願い	-11.3839
申し込み	-11.3839
思わ	-11.3839
くぅ	-11.3839
▁結婚	-11.3842
んじゃった	-11.3843
どうしたらいい	-11.3846
とら	-11.3847
ったけど	-11.3847
きもち	-11.3848
昨日から	-11.3848
𖤐	-11.3848
がっつり	-11.3849
速度	-11.3849
ぜぇ	-11.3851
途	-11.3851
▁あいちゃん	-11.3853
知ってます	-11.3853
育児	-11.3854
気になった	-11.3854
っきり	-11.3856
さんお誕生日おめでとうございます	-11.3857
∪	-11.3859
泊まり	-11.3859
はずっと	-11.386
番好き	-11.386
電車で	-11.3861
めに	-11.3861
🙇‍♀️✨	-11.3861
▁パン	-11.3862
大切ですよね	-11.3862
ただただ	-11.3863
ぷー	-11.3863
団子	-11.3864
▁)✧	-11.3864
▁;)	-11.3864
しないの	-11.3865
▁わーー	-11.3865
買うか	-11.3866
そう思って	-11.3867
神経	-11.3867
寝るの	-11.3867
たちに	-11.3867
踏	-11.3869
瞳	-11.3869
知れ	-11.387
が多かった	-11.3871
突っ	-11.3871
⊂)	-11.3872
手で	-11.3872
金髪	-11.3873
使ってた	-11.3873
!!︎!!︎	-11.3873
いいねありがとうございます	-11.3875
眼鏡	-11.3875
、、、?	-11.3876
お過ごしくださいね	-11.3877
▁ありが	-11.3877
来て欲しい	-11.3877
上手に	-11.3878
にならん	-11.3879
握	-11.3881
BO	-11.3882
達と	-11.3882
ビス	-11.3883
ほしかった	-11.3883
するのに	-11.3884
▁グッズ	-11.3884
番の	-11.3884
悲鳴	-11.3885
増えてる	-11.3887
ビックリした	-11.3887
🥹🤍	-11.3887
抜か	-11.3887
出発	-11.3888
▁ki	-11.3888
▁両方	-11.3889
まっす	-11.3891
囲	-11.3893
とは思う	-11.3894
センシティブ	-11.3895
エー	-11.3895
わかりました	-11.3895
田中	-11.3896
含む	-11.3897
▁ワクワク	-11.3897
死ね	-11.3897
ミちゃん	-11.3898
▁何とか	-11.3899
マツ	-11.3899
🏍	-11.39
由	-11.39
真っ白	-11.39
りこ	-11.3901
▁we	-11.3901
貼	-11.3902
(:3_	-11.3902
御座います	-11.3905
やすかった	-11.3905
慌てて	-11.3907
はないけど	-11.3908
人それぞれ	-11.3909
ba	-11.391
余り	-11.3911
ゲリラ	-11.3911
無料で	-11.3911
そうじゃない	-11.3913
混ぜて	-11.3913
の仕方	-11.3914
ガタ	-11.3914
愛おしい	-11.3917
そこが	-11.3917
この垢	-11.3917
知ら	-11.3918
大切ですね	-11.3919
喋る	-11.3919
🛌	-11.3921
早く寝	-11.3922
aki	-11.3922
理由は	-11.3924
エンカ	-11.3925
行っちゃう	-11.3928
▁さっそく	-11.3932
豊か	-11.3932
まど	-11.3933
の魅力	-11.3933
〜〜!!!	-11.3933
収録	-11.3933
てるよ	-11.3933
飲みながら	-11.3934
真剣に	-11.3934
͡	-11.3935
則	-11.3936
焼く	-11.3937
やり取り	-11.3938
▁イラスト	-11.3939
イェ	-11.3939
に乗	-11.3939
去年の	-11.3941
いてくれる	-11.3941
好きなんです	-11.3941
糖	-11.3942
電子	-11.3943
🥺🤍	-11.3943
参加する	-11.3945
提案	-11.3945
タイミングが	-11.3946
のことは	-11.3947
聞くと	-11.3947
ρ	-11.3947
カメ	-11.3949
▁not	-11.3949
▁カレー	-11.395
スパイ	-11.395
▁どうせ	-11.3952
甲斐	-11.3952
過ごし	-11.3952
🚀	-11.3952
着せ	-11.3953
がき	-11.3953
🧚	-11.3957
地元の	-11.3957
食べてみたい	-11.3957
の衣装	-11.3958
伺	-11.396
▁e	-11.3961
が来た	-11.3962
年生	-11.3962
^_−♡	-11.3963
お金を	-11.3964
ほっ	-11.3965
聞きました	-11.3967
満喫して	-11.3968
▁まるちゃん	-11.3968
▁́∀`@)⊃	-11.3968
聞けて	-11.3968
こっちに	-11.3969
▁̄∇	-11.3972
は大事	-11.3973
のび	-11.3973
最推し	-11.3974
っぷり	-11.3974
細い	-11.3974
を見せて	-11.3975
マグ	-11.3976
難しいよね	-11.3977
忙しく	-11.398
りで	-11.398
寄せ	-11.3982
頭を	-11.3982
エマ	-11.3982
きく	-11.3985
我が家の	-11.3985
してません	-11.3986
ぴぴ	-11.3987
行きたいな	-11.3988
▁りんご	-11.3989
食え	-11.399
▁おおー	-11.3991
耐えられ	-11.3991
隠して	-11.3992
オーダー	-11.3996
は違う	-11.3996
ちゅき	-11.3997
が変わる	-11.3998
分に	-11.3999
瞬間に	-11.3999
▁わわ	-11.4
クラブ	-11.4
義母	-11.4
🖕	-11.4001
▁だめ	-11.4002
のにね	-11.4003
ا	-11.4005
.......	-11.4005
紀	-11.4005
▁全て	-11.4006
ひる	-11.4007
買っちゃった	-11.4009
▁師匠	-11.4009
ハズレ	-11.401
いたり	-11.401
引っかか	-11.4011
助けられ	-11.4012
〜〜〜〜〜	-11.4012
渋	-11.4012
たんさん	-11.4013
余裕が	-11.4013
バスケ	-11.4014
発生	-11.4014
でた	-11.4014
▁ニ	-11.4015
ঌ	-11.4015
いいぞ	-11.4016
戻ってきて	-11.4019
ニング	-11.4019
以外に	-11.402
(⑉•	-11.4021
▁コメント	-11.4022
もらえたら	-11.4023
▁わーん	-11.4024
珍	-11.4024
▁꜆	-11.4026
ふふふ	-11.4027
💚💚	-11.4027
▁ここに	-11.4029
おら	-11.4029
爆死	-11.403
群	-11.403
レッスン	-11.4031
ユーザー	-11.4032
▁ユウ	-11.4032
バタ	-11.4032
ぽんさん	-11.4032
▁私たち	-11.4033
▁我	-11.4033
買ってる	-11.4033
声掛けて	-11.4034
▁ܸ	-11.4034
が来て	-11.4036
と言われた	-11.4036
抱	-11.4036
貢	-11.4036
実践	-11.4036
ウオ	-11.4036
終わらせて	-11.4039
だなあ	-11.4039
する予定	-11.404
いし	-11.4041
ええよ	-11.4041
高熱	-11.4041
生えて	-11.4041
ue	-11.4041
んやな	-11.4041
リュ	-11.4042
寒い中	-11.4043
浸	-11.4043
無いので	-11.4043
打て	-11.4043
...///	-11.4044
DA	-11.4044
を出して	-11.4045
にき	-11.4049
りぷ	-11.405
輝いて	-11.4051
🌛	-11.4052
こっちが	-11.4054
いけそう	-11.4054
期待してる	-11.4054
全く同じ	-11.4055
理由が	-11.4055
🍪	-11.4057
見た時	-11.4057
絡みましょ	-11.4058
▁)⸝♡	-11.4058
単純に	-11.4058
(@	-11.4059
おけば	-11.406
娘さん	-11.406
▁お疲れ様ー	-11.4061
ฅ́	-11.4061
みい	-11.4061
ばれ	-11.4061
言ってくれる	-11.4062
▁ファン	-11.4063
くんおはよう	-11.4065
偽	-11.4065
下さり	-11.4065
治り	-11.4066
尽く	-11.4066
年越しそば	-11.4068
ight	-11.4068
終わってから	-11.4069
WA	-11.4071
▁́∀`∩)💕	-11.4071
おかわり	-11.4074
LE	-11.4074
感ある	-11.4074
😂😂😂😂	-11.4074
部の	-11.4075
不明	-11.4075
▁ピンク	-11.4076
そのあと	-11.4077
くなっちゃった	-11.4077
吹雪	-11.4078
・)/	-11.4078
楽しんできます	-11.4078
▁一度	-11.4079
勇	-11.4079
▁やり	-11.4079
寿	-11.4083
溢れ	-11.4083
ヘッド	-11.4083
しまいそう	-11.4083
酔って	-11.4083
あるなら	-11.4083
人生を	-11.4084
お手紙	-11.4084
くなったら	-11.4084
癒された	-11.4087
壊れて	-11.4089
🏇	-11.4089
▁go	-11.4089
悪いこと	-11.409
ヘル	-11.4091
早く良くなりますように	-11.4092
▁起きて	-11.4093
BGM	-11.4093
枝	-11.4094
までの	-11.4095
ひき	-11.4095
だけでなく	-11.4096
たまちゃん	-11.4097
まみ	-11.4097
いちゃ	-11.4097
文字数	-11.4098
雅	-11.4099
食べてた	-11.4099
毛布	-11.41
頑張りたい	-11.4102
▁ソロ	-11.4103
リセット	-11.4104
▁y	-11.4105
▁ぼっち	-11.4105
除雪	-11.4105
やんさん	-11.4108
ゴリ	-11.4109
助かった	-11.4111
つもりで	-11.4112
つぎ	-11.4112
ないと思う	-11.4113
なってた	-11.4114
▁把握です	-11.4114
▁偉い	-11.4115
似合いそう	-11.4115
いるんだ	-11.4115
▁えぐ	-11.4115
批判	-11.4115
餌	-11.4115
切れる	-11.4116
出るの	-11.4116
はいる	-11.4119
▁優	-11.412
だいじょぶ	-11.4121
すごすぎ	-11.4122
の分も	-11.4122
喉が	-11.4124
いっぱいある	-11.4125
ぐらいの	-11.4125
😌💕	-11.4126
▁うまい	-11.4126
▁̆*).。.:*♡	-11.4126
指摘	-11.4126
▁くま	-11.4127
向かいます	-11.4128
ブス	-11.4128
ぶー	-11.4129
お隣	-11.413
▁›	-11.4131
スゴい	-11.4131
周辺	-11.4132
合えば	-11.4132
た方が	-11.4133
話せ	-11.4134
😘💕	-11.4135
〈	-11.4137
唐突	-11.4137
どうなるか	-11.4139
道具	-11.4141
避け	-11.4141
🥀	-11.4142
といって	-11.4142
って聞いた	-11.4143
難し	-11.4146
受付	-11.4146
の練習	-11.4146
アツ	-11.4146
おつおつ	-11.4147
とは思いますが	-11.4147
係	-11.4147
にあった	-11.4148
されてるの	-11.4149
それでいい	-11.415
▁お久しぶりです	-11.415
態	-11.415
▁ᐖ	-11.4151
▁帰ったら	-11.4152
嬉	-11.4152
゚+.	-11.4157
▁ついでに	-11.4157
∞	-11.4158
▁しょー	-11.4158
見せる	-11.4159
になってました	-11.4159
継	-11.4161
下が	-11.4162
むぅ	-11.4162
日和	-11.4163
私より	-11.4164
ねぎ	-11.4165
ウサ	-11.4165
に感謝です	-11.4167
行けてない	-11.4167
᷄ὢ	-11.4168
お気を付けて	-11.4168
育てて	-11.4169
▁Mi	-11.417
▁ゆゆ	-11.417
𓏸𓈒	-11.4171
いてください	-11.4172
ると思う	-11.4172
してもよろしいでしょうか	-11.4172
休めて	-11.4174
誕生	-11.4174
▁首	-11.4175
▁最強	-11.4175
手に入れ	-11.4176
あけおめことよろです	-11.4177
▁来年もまた	-11.4177
▁なんとなく	-11.4178
!!」	-11.4178
笑顔が	-11.4179
ご存知	-11.4179
△	-11.4179
キッズ	-11.4179
ちゃんには	-11.418
美味しそ	-11.4182
覚えた	-11.4182
パァ	-11.4183
防衛	-11.4185
ハロウィン	-11.4185
🤝✨	-11.4185
定番	-11.4185
▁先に	-11.4186
▁大丈夫ですよ	-11.4186
せねば	-11.4189
ꠥ	-11.419
狼	-11.4191
▁地元	-11.4191
ディング	-11.4192
普段から	-11.4194
おなじ	-11.4195
フォローさせていただきます	-11.4199
智	-11.4201
消した	-11.4201
は今	-11.4201
お仲間	-11.4202
どーぞ	-11.4203
▁今日で	-11.4203
なんだよな	-11.4204
▁your	-11.4205
有馬記念	-11.4206
押し付け	-11.4207
▁͡°	-11.4207
▁現在	-11.4208
▁やー	-11.4208
びっくりする	-11.4209
勉強になります	-11.421
💓💓💓💓	-11.421
二つ	-11.421
ですぅ	-11.4211
泡	-11.4211
いい加減	-11.4212
▁桜	-11.4213
減った	-11.4213
はん	-11.4215
は必ず	-11.4216
毎朝	-11.4216
童	-11.4217
になってしまいました	-11.4217
⑉	-11.4218
カシ	-11.4218
▁りんちゃん	-11.4219
してたので	-11.4219
em	-11.422
緊張する	-11.422
GA	-11.4221
ログ	-11.4221
▁どれ	-11.4221
ほちゃん	-11.4223
のところに	-11.4223
(??)	-11.4224
横から	-11.4225
一時	-11.4226
オチ	-11.4226
振り返り	-11.4226
次第で	-11.4226
新刊	-11.4226
者は	-11.4229
度寝	-11.423
▁こいつ	-11.4231
😆✨✨	-11.4231
❕❕❕	-11.4232
んぼ	-11.4232
効いて	-11.4234
やらかし	-11.4234
できるから	-11.4236
▁りゅう	-11.4236
はっぴー	-11.4237
▁はあく	-11.4237
面白かったです	-11.4237
ってくれる	-11.4238
遊べて	-11.4238
;;;;	-11.4239
▁気持ち	-11.424
ベリー	-11.424
お世話になり	-11.424
......😭	-11.4241
大声	-11.4241
インパクト	-11.4242
ぬぬ	-11.4245
てきて	-11.4245
▁年末の	-11.4246
めっちゃ楽しかった	-11.4247
均	-11.4248
どのくらい	-11.4256
間に合わない	-11.4257
けぇ	-11.4257
するかも	-11.4257
お迎えありがとうございます	-11.4257
マイペースに	-11.4259
もっかい	-11.4259
ありがた	-11.426
上げた	-11.4261
それなりに	-11.4262
?()	-11.4263
いけません	-11.4265
▁人間	-11.4266
▁りこ	-11.4266
早くて	-11.4267
〰︎	-11.4267
明らかに	-11.4268
承知致しました	-11.4271
自分のこと	-11.4271
・)「	-11.4272
めっちゃかわいい	-11.4272
▁第	-11.4273
おつありです	-11.4274
君と	-11.4274
控えめ	-11.4274
DD	-11.4275
っちー	-11.4275
▁後ほど	-11.4278
キャッキャ	-11.4278
素敵なイラスト	-11.4279
勿体ない	-11.4282
聞きます	-11.4283
お久しぶりです	-11.4283
信じられない	-11.4283
▁29	-11.4283
ですしね	-11.4284
アハハ	-11.4284
▁横	-11.4285
利益	-11.4286
▁You	-11.4286
やばいです	-11.4286
詩	-11.4287
フリフリ	-11.4287
...🙄	-11.4288
ができて	-11.4288
ありが	-11.4288
が足りない	-11.4289
リュー	-11.4291
▁ふう	-11.4292
▁̆ฅ̀	-11.4292
ぶっちゃけ	-11.4292
も結構	-11.4293
になりますが	-11.4294
だったんだね	-11.4296
人柄	-11.4296
▁ヤバい	-11.4296
長野	-11.4296
が出てくる	-11.4297
ものすごく	-11.4297
絆	-11.4298
めちゃくちゃ嬉しいです	-11.4299
年末年始の	-11.4299
▁君	-11.4302
かえる	-11.4302
気づき	-11.4303
しゅき	-11.4304
思いを	-11.4305
▁゚∀゚)	-11.4306
きまーす	-11.4307
楽しそうで	-11.4307
出来ず	-11.4308
没	-11.4308
オブ	-11.4308
貰い	-11.4308
まるちゃん	-11.431
なると	-11.431
に置いて	-11.431
延長	-11.431
見事に	-11.4311
...🙏	-11.4312
貰えた	-11.4313
ゲロ	-11.4313
▁クリスマスに	-11.4314
▁面白い	-11.4315
ってました	-11.4316
折り	-11.4317
止まる	-11.4318
出します	-11.4318
アート	-11.4318
した時に	-11.432
と違って	-11.432
ラウ	-11.432
ありがとうです	-11.4323
いけば	-11.4323
fu	-11.4324
まほ	-11.4324
‐	-11.4325
をしている	-11.4325
モーニング	-11.4325
▁おぉー	-11.4327
メガ	-11.4327
読みたい	-11.4329
グリーン	-11.4329
▁ba	-11.433
▁しゅん	-11.433
ありましたら	-11.433
できるだけ	-11.4331
▁誕生日おめでとうございます	-11.4333
おもろかった	-11.4333
お店の	-11.4333
だろうか	-11.4333
ッカ	-11.4335
再販	-11.4335
▁りお	-11.4335
'-')╮	-11.4336
かっこよ	-11.4337
こちらは	-11.4337
ルト	-11.4338
来年も宜しくお願い致します	-11.434
▁帰り	-11.4341
ネッ	-11.4342
添	-11.4343
聞いてない	-11.4345
艦	-11.4346
🥟	-11.4346
いっしょ	-11.4348
▁今後とも	-11.4351
あの子	-11.4351
お試し	-11.4351
さて	-11.4352
攻略	-11.4352
平均	-11.4352
知らんかった	-11.4355
してても	-11.4355
🆗	-11.4356
覚える	-11.4356
と思ってたら	-11.4358
▁こちらこそ今年も	-11.4358
拝見して	-11.4359
ロマン	-11.4359
今後の	-11.436
逃げて	-11.4361
大丈夫だ	-11.4362
トラウマ	-11.4363
💦)	-11.4363
おめでたい	-11.4368
▁ぼ	-11.4368
と交換	-11.4369
太郎さん	-11.437
ふう	-11.4371
祝って	-11.4371
可能でしょうか	-11.4372
💉	-11.4373
▁今年もよろしくねー	-11.4374
すく	-11.4374
▁追加	-11.4374
お送り	-11.4375
らく	-11.4376
ねぇー	-11.4381
▁わぁぁ	-11.4381
通過	-11.4382
ではなかった	-11.4384
のでよろしくお願いします	-11.4384
ココア	-11.4384
🤩🤩🤩	-11.4385
アワ	-11.4386
飼い主	-11.4387
入ってて	-11.4387
海老	-11.4388
どうやら	-11.4388
きいて	-11.439
きたい	-11.439
゚*	-11.4392
お口	-11.4392
ってるから	-11.4393
無理やり	-11.4393
きって	-11.4394
形で	-11.4395
ように頑張る	-11.4395
行くので	-11.4395
大阪で	-11.4396
🥺🥺🥺🥺	-11.4397
▁)⊃	-11.4397
ニヤリ	-11.4399
💕💕💕💕	-11.4399
諸	-11.4399
サーバー	-11.44
ますかね	-11.44
下に	-11.4401
なろ	-11.4403
また機会がありましたら	-11.4403
副	-11.4403
∩^	-11.4403
抜ける	-11.4403
股	-11.4404
▁こないだ	-11.4405
ひい	-11.4405
と聞いて	-11.4406
どろ	-11.4406
お泊まり	-11.4407
なら大丈夫	-11.4408
仕方	-11.4408
大変です	-11.441
脇	-11.4412
1/2	-11.4412
読ませて	-11.4413
PL	-11.4413
SH	-11.4415
メント	-11.4417
出来ん	-11.4419
様は	-11.4419
はきっと	-11.4419
景	-11.4422
初売り	-11.4423
🎧	-11.4423
午前	-11.4423
妙	-11.4425
何して	-11.4425
黒髪	-11.4427
バレる	-11.4427
▁初夢	-11.4427
捨てる	-11.4427
🍢	-11.4428
あけましておめでと	-11.4429
になっている	-11.4429
見つかった	-11.4429
▁荒野	-11.443
▁ミニ	-11.4431
なにこれ	-11.4431
いちゃった	-11.4432
あず	-11.4433
╭	-11.4434
頑張ら	-11.4434
原稿	-11.4434
▁誤字	-11.4435
うか	-11.4436
としか	-11.4437
センイル	-11.4437
いたのに	-11.4437
▁˃̶͈̀	-11.4439
ないね	-11.4439
洗って	-11.444
TE	-11.444
いるか	-11.4441
行きたくない	-11.4441
たむ	-11.4441
▁同い年	-11.4442
ありがとうございま	-11.4444
タラ	-11.4444
モニター	-11.4445
▁その通り	-11.4448
当てる	-11.4448
駆	-11.4449
新春	-11.4449
推しを	-11.4451
月まで	-11.4451
共々	-11.4453
サンキュー	-11.4453
みこ	-11.4454
〜〜〜!!!	-11.4454
‍www	-11.4455
贈	-11.4455
近づいて	-11.4455
▁おつかれさまでした	-11.4456
世界観	-11.4456
`*)♡	-11.4457
受験生	-11.4458
ています	-11.4458
いただけると	-11.4459
ナッツ	-11.4459
の良い	-11.4459
何人か	-11.4459
自然と	-11.4459
▁誕生日おめでとう	-11.446
ヘヘ	-11.4462
明日の朝	-11.4462
▁⌯'	-11.4464
ざわ	-11.4464
▁ガチャ	-11.4464
いるし	-11.4464
▁きよ	-11.4466
流して	-11.4467
48	-11.4467
▁con	-11.4468
づき	-11.4469
ティア	-11.4471
ご検討いただけますと幸いです	-11.4471
支	-11.4472
目の前で	-11.4473
想定	-11.4473
いってきます	-11.4473
ラブラブ	-11.4474
暮らし	-11.4475
りません	-11.4476
良くなった	-11.4476
絡みに行く	-11.4476
▁るな	-11.4476
ご返信	-11.4476
帝	-11.4476
始めました	-11.4476
のお仕事	-11.4477
🧊	-11.4477
お家で	-11.4479
たんと	-11.4479
ボウ	-11.4479
寒いし	-11.4479
たいな	-11.4481
ってことか	-11.4482
▁今日も良い	-11.4483
カンパーイ	-11.4483
目の前	-11.4484
はどんな	-11.4486
▁フル	-11.4487
▁あーちゃん	-11.4488
ので是非	-11.4489
マイペースで	-11.4489
場所で	-11.4491
化粧	-11.4492
の時代	-11.4493
絵も	-11.4493
やない	-11.4493
ツイートで	-11.4494
▁犬	-11.4494
▁しー	-11.4495
是非仲良くしてください	-11.4498
のプレゼント	-11.4498
過ごせた	-11.4499
予告	-11.45
素敵な作品	-11.4502
干し	-11.4502
ふぇ	-11.4503
▁おやす	-11.4503
苦笑	-11.4503
駆け抜け	-11.4504
三昧	-11.4505
張り切って	-11.4506
ミヤ	-11.4508
風邪ひかないように	-11.4508
困ります	-11.4509
ごん	-11.451
実績	-11.4511
止まり	-11.4511
出来なくて	-11.4511
年末まで	-11.4513
ギョ	-11.4514
ぬる	-11.4514
キミ	-11.4515
わわわ	-11.4515
殺す	-11.4517
いきたいですね	-11.4517
てね	-11.4517
ていうか	-11.452
していました	-11.4521
褒められた	-11.4521
遺	-11.4521
ハハハ	-11.4522
賢	-11.4522
に入れる	-11.4524
▁わーーー	-11.4524
お気持ち	-11.4524
行こうか	-11.4524
育	-11.4525
けろ	-11.4525
≦	-11.4527
アリガトウ	-11.4528
邪	-11.4531
りつ	-11.4531
まである	-11.4531
やったん	-11.4531
青い	-11.4532
▁お菓子	-11.4532
ぐっすり	-11.4532
happy	-11.4533
聞こえる	-11.4534
`‹	-11.4535
ご報告	-11.4535
▁今年もありがとうございました	-11.4537
とは違う	-11.4537
୧	-11.4538
んけど	-11.4539
惹かれ	-11.454
▁くぅ	-11.454
お米	-11.4542
▁今年も沢山	-11.4543
摂	-11.4543
きちさん	-11.4543
ハハ	-11.4545
レンジ	-11.4546
んだろうけど	-11.4547
▁-᷄	-11.4547
こんなの	-11.4548
ないもん	-11.4549
が沢山	-11.4549
を食べる	-11.455
遅くなって	-11.4552
だもの	-11.4553
威	-11.4553
もなかなか	-11.4553
キョ	-11.4553
お似合い	-11.4554
解消	-11.4555
かも知れません	-11.4555
ーーーーーーーー	-11.4555
隣で	-11.4556
の中から	-11.4557
ちゃんとか	-11.4558
💟	-11.456
後ろから	-11.4561
ふた	-11.4561
▁‧̫	-11.4563
っっっっ	-11.4563
▁さっ	-11.4563
始めたら	-11.4564
かなしい	-11.4565
足の	-11.4566
情報ありがとうございます	-11.4567
行かないと	-11.4567
酔	-11.457
の時も	-11.457
終わっちゃう	-11.4571
飛んだ	-11.4571
▁また来年	-11.4571
頭の	-11.4573
ヤッター	-11.4574
で一番	-11.4574
ぽて	-11.4576
冬眠	-11.4578
通知オン	-11.4579
呼んだら	-11.458
IT	-11.458
っくり	-11.458
貸して	-11.4581
親の	-11.4581
されそう	-11.4583
▁本日は	-11.4584
▁来年も仲良くしてね	-11.4584
投げて	-11.4585
小学校	-11.4586
ははは	-11.4587
決して	-11.4587
今日も一日	-11.4591
プラン	-11.4591
の間に	-11.4592
さんのお	-11.4592
気力	-11.4592
博多	-11.4594
人生で	-11.4595
皆さんに	-11.4595
今回も	-11.4599
月さん	-11.4599
ディア	-11.4599
🥵	-11.4599
性別	-11.46
アイデア	-11.4601
時代の	-11.4601
滑り	-11.4602
ないぞ	-11.4603
きちゃ	-11.4604
ケル	-11.4604
恐らく	-11.4605
あがる	-11.4608
このあと	-11.4608
いい感じに	-11.4608
シカ	-11.4609
❗️❗️	-11.461
の情報	-11.461
監視	-11.4611
ear	-11.4612
買っちゃう	-11.4613
インテ	-11.4614
😂🤣	-11.4614
マッスル	-11.4614
余計な	-11.4615
フライ	-11.4615
炭	-11.4616
でもいいから	-11.4616
ポコ	-11.4617
先が	-11.4617
完売	-11.4619
みえ	-11.4619
▁我が家は	-11.4619
▁みんなおはよう	-11.462
▁しの	-11.462
煙	-11.4621
落とす	-11.4622
▁どこに	-11.4622
隠れて	-11.4623
会いた	-11.4624
入りました	-11.4624
▁どうした	-11.4624
ファミマ	-11.4625
だったな	-11.463
ちむ	-11.463
機嫌	-11.463
仲良くしたい	-11.4631
言わないで	-11.4632
粗	-11.4633
ぜろ	-11.4633
がんばろう	-11.4633
さっさと	-11.4634
な方	-11.4635
やらないと	-11.4635
一日になりますように	-11.4636
やのに	-11.4636
かったけど	-11.4637
らー	-11.4638
扉	-11.4638
抵抗	-11.4638
▁新年から	-11.4639
タチ	-11.4639
遊んだ	-11.464
▁楽しんできてね	-11.4641
貴重	-11.4641
来てない	-11.4642
イチゴ	-11.4642
行動力	-11.4642
厨	-11.4644
んだぁ	-11.4645
したく	-11.4645
を食べて	-11.4646
食べよ	-11.4646
▁ひゃ	-11.4646
やと	-11.4647
さち	-11.4647
左右	-11.4648
🙈💕	-11.4649
もくり	-11.4649
スレ	-11.4649
声掛け	-11.465
ぜん	-11.465
見れるの	-11.4651
?💭	-11.4651
やったわ	-11.4652
マイペース	-11.4652
殺し	-11.4653
▁運営	-11.4653
管	-11.4654
ロット	-11.4654
両手	-11.4656
たかさん	-11.4657
たちは	-11.4658
▁まお	-11.4658
何て	-11.4658
〜💓	-11.4658
トコ	-11.4659
▁お誕生日	-11.4659
〜😭😭	-11.4661
単語	-11.4662
かまって	-11.4663
▁みか	-11.4663
少なく	-11.4663
燃や	-11.4666
差し入れ	-11.4666
弓	-11.4666
会で	-11.4666
菊	-11.4666
あだ名	-11.4667
楽しいですよね	-11.4667
▁さき	-11.4667
▁なか	-11.4668
を見ると	-11.4669
この曲	-11.4669
積もって	-11.467
したいので	-11.4671
居酒屋	-11.4672
延	-11.4674
あわ	-11.4675
◦	-11.4676
致	-11.4677
キンプリ	-11.4679
呑んで	-11.4679
MC	-11.468
跳ね	-11.468
でいいから	-11.468
追加で	-11.468
差が	-11.4683
▁((	-11.4683
嫌われ	-11.4685
▁今回も	-11.4685
ハマった	-11.4686
とかでも	-11.4686
騙され	-11.4687
プレイヤー	-11.4687
写真撮る	-11.4687
あったよ	-11.4687
だから大丈夫	-11.4689
仕事です	-11.4689
▁まゆちゃん	-11.469
可愛かったです	-11.469
▁らむ	-11.4691
読めない	-11.4692
るんや	-11.4692
そんなの	-11.4692
⌯	-11.4693
多いです	-11.4693
昼から	-11.4693
ようか	-11.4693
な気がします	-11.4694
、、(	-11.4695
ユキ	-11.4695
😁😁	-11.4696
坊主	-11.4697
が気になる	-11.4697
お話できて	-11.4699
最強の	-11.4699
▁むー	-11.47
▁はなちゃん	-11.47
連携	-11.47
ガン見	-11.4701
浦	-11.4701
指導	-11.4701
寝ない	-11.4701
欲しいよね	-11.4702
乾	-11.4704
▁᷇	-11.4704
ごみ	-11.4704
貯めて	-11.4705
神引き	-11.4705
ちょくちょく	-11.4706
令和	-11.4706
歌ってる	-11.4707
全てを	-11.4708
▁ゆみ	-11.4708
ワンコ	-11.4709
リュウ	-11.4709
▁マスク	-11.4709
楽器	-11.471
の服	-11.4711
•̥	-11.4711
▁́。✪	-11.4711
した事	-11.4711
▁綺麗な	-11.4712
覗いて	-11.4712
の神	-11.4712
▁鍵	-11.4712
▁焼肉	-11.4712
今年の目標	-11.4712
家族が	-11.4713
わけではない	-11.4715
▁女	-11.4716
眼福	-11.4718
も大事	-11.4718
もちもち	-11.4719
誰かが	-11.4719
ごー	-11.472
って言うの	-11.4722
ございません	-11.4723
シス	-11.4724
bot	-11.4724
お嬢様	-11.4725
枠で	-11.4725
いましたが	-11.4726
スロ	-11.4726
数え	-11.4727
合流	-11.4727
😢😢😢	-11.4728
すよ	-11.4728
楽しみにしてて	-11.4728
今日から仕事	-11.4728
▁ふぅ	-11.4731
頃には	-11.4732
のでぜひ	-11.4733
そっくり	-11.4733
(*^_^*)	-11.4734
👵	-11.4734
▁マー	-11.4734
動かない	-11.4734
ネス	-11.4734
⭕️	-11.4735
▁仲良し	-11.4735
と思うんだけど	-11.4736
❓️	-11.4736
会えたらいいな	-11.4737
▁和	-11.4738
するつもり	-11.4739
=)	-11.4739
🙇‍♀	-11.474
美女	-11.4741
大変申し訳ございません	-11.4744
ぜひ繋がりたいです	-11.4744
やる事	-11.4745
を入れて	-11.4745
おしえて	-11.4745
くると	-11.4746
が本当に	-11.4746
くるよ	-11.4746
▁サブ	-11.4747
ell	-11.4748
なんやろ	-11.4749
▁うぅ	-11.4749
良いと思います	-11.475
行ったの	-11.475
▁この時期	-11.4751
出産	-11.4752
▁́•̥	-11.4756
バースデー	-11.4757
ig	-11.4757
そろ	-11.4758
それこそ	-11.4758
エンジン	-11.4758
エース	-11.4758
▁うちの子	-11.4759
EL	-11.4759
もいいかな	-11.476
(›	-11.4761
そんなことない	-11.4762
⤴	-11.4762
▁ほんとですか	-11.4762
◇	-11.4762
って聞いて	-11.4763
ゼン	-11.4763
るつもり	-11.4764
よかったー	-11.4764
支払い	-11.4765
る方	-11.4766
▁love	-11.4767
日本で	-11.4767
▁私と	-11.4768
クリスマスは	-11.4768
だと思ってます	-11.4768
下さいませ	-11.477
?🤭	-11.4774
激アツ	-11.4774
いられる	-11.4775
▁本名	-11.4775
みたいだね	-11.4776
さゆ	-11.4778
を持つ	-11.4779
幼稚園	-11.4779
在宅	-11.4779
こころ	-11.4781
▁こちらの	-11.4783
ホホ	-11.4783
🎃	-11.4785
の可愛さ	-11.4786
サリ	-11.4787
を優先	-11.4789
言ってくれ	-11.479
満載	-11.4791
いいいい	-11.4791
って言うので	-11.4792
いつもありがと	-11.4792
距離感	-11.4793
大量	-11.4794
風船	-11.4795
姐さん	-11.4795
気満々	-11.4796
きつ	-11.4796
お会い出来る	-11.4797
胸が	-11.4797
スポット	-11.4798
もいっぱい	-11.4799
ランクマ	-11.48
あいたい	-11.48
▁わぁー	-11.4801
歯医者	-11.4802
今週も	-11.4805
▁これからよろしくね	-11.4806
レム	-11.4806
お話しようね	-11.4806
気持ちも	-11.4807
ちちゃん	-11.4807
らしさ	-11.4808
FA	-11.4808
̮	-11.4808
はしっかり	-11.4809
’)	-11.4809
てっきり	-11.4811
お店で	-11.4811
不快	-11.4811
ひとまず	-11.4811
インナー	-11.4811
見れてない	-11.4812
降った	-11.4812
てしまいました	-11.4813
▁喜んで	-11.4813
わた	-11.4813
あの頃	-11.4813
∵	-11.4813
も良き	-11.4813
!?️!?️	-11.4814
間に合った	-11.4815
まってて	-11.4816
釣れ	-11.4817
切ない	-11.4818
を買って	-11.4819
サビ	-11.4821
統	-11.4822
次女	-11.4823
もみ	-11.4823
▁ペ	-11.4823
たぬき	-11.4825
ってなってた	-11.4826
飲んだら	-11.4826
▁いやもう	-11.4826
▁タイミング	-11.4828
▁一回	-11.4829
(゚∀゚	-11.4829
ますわ	-11.483
‵	-11.483
かけてる	-11.4831
オソロ	-11.4834
▁銀	-11.4835
やってたら	-11.4836
すてき	-11.4836
袖	-11.4837
いること	-11.4837
ペイ	-11.4838
スマ	-11.4838
▁知ってる	-11.4839
▁疲れた	-11.4839
思ったけど	-11.4839
回しか	-11.4841
なれば	-11.4842
でも良い	-11.4842
ะ	-11.4842
むず	-11.4843
と思えば	-11.4844
下がった	-11.4844
雪は	-11.4844
ーーっ	-11.4845
しご	-11.4846
微妙な	-11.4846
さず	-11.4847
トレーニング	-11.4847
タメ口	-11.4848
突撃	-11.4848
マウス	-11.4848
生徒	-11.4848
みお	-11.4849
〜🐰	-11.4849
▁嬉しすぎる	-11.4851
セトリ	-11.4853
☺️🫶	-11.4853
ふら	-11.4854
🥳🎉	-11.4854
行きたく	-11.4854
ですね笑	-11.4854
交換可能です	-11.4855
降りて	-11.4855
は絶対に	-11.4855
ウー	-11.4856
されても	-11.4857
うぇ	-11.4859
なーって	-11.486
やろうかな	-11.4861
ああああああああああああああああ	-11.4862
jo	-11.4864
🙏✨✨	-11.4864
あげるね	-11.4865
堂々と	-11.4865
覗き	-11.4866
オさん	-11.4866
んだよー	-11.4866
と思っていた	-11.4867
残りの	-11.4868
YA	-11.4868
感謝感謝	-11.4871
そっちの	-11.4871
顔出し	-11.4872
トーン	-11.4872
1500	-11.4873
▁あいつ	-11.4873
売る	-11.4874
んだー	-11.4875
柴	-11.4876
写真集	-11.4876
もので	-11.4877
ぱく	-11.4877
りなちゃん	-11.4877
コロナで	-11.4878
︎💕	-11.4878
作りました	-11.4879
もしっかり	-11.488
猛者	-11.488
出会えてよかった	-11.488
ショタ	-11.488
おつかれさまです	-11.488
との交換	-11.4881
ミント	-11.4882
元気を	-11.4882
✌️✨	-11.4883
▁おはる	-11.4883
ババ	-11.4884
起きてた	-11.4885
それぞれの	-11.4885
ザン	-11.4885
させたい	-11.4887
▁“	-11.4887
与え	-11.489
積み重ね	-11.4891
ちゃんおめでとう	-11.4891
使ってない	-11.4891
日にち	-11.4892
▁半	-11.4893
くれるから	-11.4893
📞	-11.4893
同僚	-11.4893
強すぎて	-11.4893
らないように	-11.4894
ギリギリまで	-11.4894
ひかり	-11.4895
をお迎え	-11.4895
と違う	-11.4895
になるかも	-11.4895
ヲタ	-11.4896
備	-11.4896
冬の	-11.4897
おねがいします	-11.4897
自分と	-11.4898
ちゃんたち	-11.4899
奈良	-11.4899
ないんですよね	-11.4899
んすよ	-11.4901
素人	-11.4901
はほんと	-11.4902
さよなら	-11.4902
受けた	-11.4903
母が	-11.4903
by	-11.4904
と考えて	-11.4905
さいこう	-11.4905
▁今日も元気に	-11.4906
返り	-11.4906
気分で	-11.4906
ちくわ	-11.4906
▁昨日から	-11.4906
されちゃう	-11.4906
チップ	-11.4906
くれると嬉しいです	-11.4907
▁同	-11.4907
しに行く	-11.4908
しなくていい	-11.4909
ちゃうよ	-11.4909
自己肯定感	-11.491
▁o̴̶̷᷄	-11.491
sho	-11.4911
に戻って	-11.4912
_|	-11.4912
ice	-11.4912
楽しんできてください	-11.4913
恵まれ	-11.4913
ループ	-11.4913
▁いいなー	-11.4917
ギルド	-11.4917
ネム	-11.4921
•̤	-11.4921
アーニャ	-11.4922
発揮	-11.4922
味は	-11.4922
▁スヤァ	-11.4922
お帰り	-11.4923
ate	-11.4923
▁わかるー	-11.4923
▁もえ	-11.4926
おめおめ	-11.4927
日本に	-11.4928
さんたち	-11.4928
なべ	-11.4929
させない	-11.4931
ぬいちゃん	-11.4931
ビア	-11.4933
顎	-11.4933
AM	-11.4934
カミ	-11.4934
過ごそうね	-11.4934
▁そんな事	-11.4935
二人で	-11.4936
許される	-11.4936
本を	-11.4936
に見えた	-11.4938
▁めっちゃ可愛い	-11.4939
んのよ	-11.4941
▁よろ	-11.4942
イヤー	-11.4943
暇な時	-11.4944
所存	-11.4944
▁私のことは	-11.4944
域	-11.4945
が出来る	-11.4947
医者	-11.4947
腹痛	-11.4947
見えてる	-11.4947
表示され	-11.4948
フォロ	-11.4948
.*・゚	-11.4949
がないので	-11.495
元気です	-11.4951
ガチの本音	-11.4951
フォロバさせていただきました	-11.4952
れそう	-11.4954
▁ハッピー	-11.4954
になったり	-11.4954
▁頑張ってね	-11.4954
ウキウキ	-11.4956
Google	-11.4956
改めまして	-11.4956
ゆた	-11.4957
▁すでに	-11.4959
伸ばして	-11.4959
みれ	-11.496
許さない	-11.496
大事にして	-11.4961
???????	-11.4961
▁本人	-11.4962
🌲	-11.4962
・)*_	-11.4962
買っちゃ	-11.4962
ギー	-11.4964
伏	-11.4965
下さりありがとうございます	-11.4966
ちゃんって呼んで	-11.4966
▁ゆん	-11.4967
倒して	-11.4968
ております	-11.497
〜🤔	-11.497
高かった	-11.497
カレ	-11.4971
健全	-11.4971
回復して	-11.4971
☺️🙏	-11.4971
なんだな	-11.4972
欲しくて	-11.4973
▁̳ᐡ	-11.4973
之	-11.4973
▁́3`*)	-11.4975
だぬ	-11.4975
交通	-11.4976
練習して	-11.4976
よろしいですか	-11.4976
眠れない	-11.4977
はマジで	-11.4978
難しかった	-11.4979
ちゃいますね	-11.4979
言葉で	-11.4979
吐き出	-11.4979
ネガティブ	-11.498
おんなじ	-11.498
布団から出	-11.498
(..)	-11.4981
してやる	-11.4982
リプに	-11.4983
▁娘さん	-11.4983
忘れてました	-11.4984
くらいには	-11.4985
よお	-11.4987
▁そうだったんですね	-11.4987
👄	-11.4991
👓	-11.4991
やたら	-11.4992
ボブ	-11.4993
たんも	-11.4993
お家に	-11.4994
▁ダ	-11.4994
▁さあ	-11.4995
大事です	-11.4996
うんち	-11.4996
=3	-11.4996
畑	-11.4997
ありましたね	-11.4997
ᅀ	-11.4997
▁just	-11.4997
▁最後に	-11.4997
ゲーセン	-11.4998
今年もよろしくです	-11.4999
シリ	-11.5
昨夜	-11.5001
んじゃないの	-11.5001
会いましょ	-11.5002
くれます	-11.5002
になるけど	-11.5004
誘い	-11.5004
com	-11.5004
うれ	-11.5005
リィ	-11.5007
▁個人的に	-11.5007
休みの日	-11.5008
砲	-11.5009
アリス	-11.5009
ぁあ	-11.501
▁ぼくも	-11.5011
をかけて	-11.5011
部屋で	-11.5012
ボル	-11.5012
ブック	-11.5014
キム	-11.5018
されたの	-11.5019
▁常に	-11.502
爆誕	-11.5021
メス	-11.5021
ᐕ	-11.5022
おたおめ	-11.5022
たちも	-11.5022
▁28	-11.5024
溶けて	-11.5024
も大好き	-11.5024
持ってた	-11.5024
さば	-11.5024
▁新幹線	-11.5025
方向に	-11.5027
▁石	-11.5028
困ってる	-11.5028
子どもたち	-11.5029
????????	-11.503
やないか	-11.503
▁そうなのね	-11.503
カム	-11.5031
湿	-11.5031
なす	-11.5032
▁むぎ	-11.5033
今起きた	-11.5033
セルフ	-11.5033
シャル	-11.5035
が増えた	-11.5035
のんさん	-11.5035
のみで	-11.5036
しないから	-11.5036
そうなん	-11.5038
NHK	-11.5038
名言	-11.5038
▁タグ	-11.5038
楽しい時間を	-11.5038
^∀^	-11.5039
リョ	-11.504
当たりますように	-11.5041
ゴル	-11.5041
で終わる	-11.5041
いきましょー	-11.5041
おろ	-11.5042
も好きです	-11.5043
▁おはようございまーす	-11.5043
トレンド	-11.5045
巻き込み	-11.5046
を感じます	-11.5046
☀️.°	-11.5047
走れ	-11.5049
一年でした	-11.5049
▁みんなに	-11.5049
挙	-11.505
(((((	-11.5052
円盤	-11.5052
びび	-11.5053
人いない	-11.5053
コイ	-11.5054
っしゃ	-11.5054
吾	-11.5055
▁だいすき	-11.5056
温めて	-11.5059
泣か	-11.5059
構図	-11.506
4000	-11.506
お裾分け	-11.5061
唇	-11.5061
▁LOVE	-11.5061
離婚	-11.5061
みたよ	-11.5062
申し訳	-11.5069
制度	-11.5071
申	-11.5072
湖	-11.5073
気づけ	-11.5075
♥️♥️	-11.5075
かじ	-11.5077
トラック	-11.5077
コロコロ	-11.5079
気長に	-11.5079
日をお過ごしください	-11.5079
俺たち	-11.508
外に	-11.5081
過ごしましょう	-11.5082
入れてる	-11.5082
▁おん	-11.5083
▁ぐっ	-11.5083
アーティスト	-11.5084
付いてる	-11.5086
⸝⋆	-11.5087
そういう事	-11.5088
かなりの	-11.5089
ひん	-11.5089
の投稿	-11.509
雇	-11.509
▁dm	-11.509
感謝しかない	-11.5091
ぐっ	-11.5092
に反応	-11.5092
ご検討よろしくお願い致します	-11.5093
先行	-11.5093
▁ちがう	-11.5094
ちこ	-11.5095
フォト	-11.5095
セックス	-11.5095
ツン	-11.5095
ゔ	-11.5096
ี	-11.5096
ホッと	-11.5099
体は	-11.5099
▁スペ	-11.5101
眉	-11.5101
▁ちー	-11.5101
大変でしたね	-11.5102
情報を	-11.5103
フォロー失礼致します	-11.5106
は私の	-11.5107
▁morning	-11.5107
ちゃーーん	-11.5108
乁	-11.5108
仕事に	-11.5108
のおかげです	-11.5109
国の	-11.5109
してないけど	-11.511
ドキ	-11.511
二人とも	-11.511
メロ	-11.5111
BS	-11.5111
▁こわ	-11.5112
だそうです	-11.5112
つくる	-11.5113
なくなっちゃった	-11.5114
遅かった	-11.5114
▁おもち	-11.5114
人くらい	-11.5115
オナ	-11.5118
ガード	-11.5118
偏	-11.5118
所が	-11.5119
言っちゃ	-11.512
待っと	-11.5121
くるね	-11.5123
▁おはさく	-11.5123
ひめ	-11.5124
今夜は	-11.5124
▁にゃん	-11.5125
ねこちゃん	-11.5125
いぇい	-11.5126
▁弟	-11.513
美味しくて	-11.513
捗	-11.5131
先程	-11.5131
▁ギリギリ	-11.5131
í	-11.5131
ばっちり	-11.5131
冷静に	-11.5132
っていうので	-11.5132
なのかも	-11.5133
▁本年もよろしくお願いいたします	-11.5133
楽しそうな	-11.5134
ワンマン	-11.5134
尽き	-11.5134
なくなったら	-11.5135
▁耳	-11.5135
爽やか	-11.5136
遠慮なく	-11.5136
行く時	-11.5136
りーちゃん	-11.5136
(⑉	-11.5136
転が	-11.5137
😟	-11.5137
したのは	-11.5138
育って	-11.5139
心の中で	-11.5141
遅くなった	-11.5141
まお	-11.5141
そばに	-11.5142
▁コラボ	-11.5142
過ごせ	-11.5142
🏀	-11.5143
▁́,,•	-11.5143
灰	-11.5143
ロケ	-11.5143
まくん	-11.5143
に会いに	-11.5144
行くぞ	-11.5145
かわいいよ	-11.5145
ズボン	-11.5147
呪	-11.5148
圏	-11.5149
⡱	-11.5149
......🤔	-11.5149
アズ	-11.515
エラ	-11.515
ナナ	-11.515
▁塩	-11.515
▁今更	-11.5152
▁バカ	-11.5156
片方	-11.5157
コピー	-11.5157
▁良かったね	-11.5159
言われると	-11.516
反応して	-11.5161
ほしいな	-11.5162
初の	-11.5165
いるのですが	-11.5165
😶‍🌫️	-11.5166
来年こそは	-11.5167
▁辛い	-11.5169
誰と	-11.517
受け止め	-11.5171
おてて	-11.5172
ご機嫌	-11.5172
資金	-11.5173
つめ	-11.5175
止	-11.5175
よ笑笑	-11.5176
この時期	-11.5176
リビング	-11.5178
蓄	-11.5178
お忙しい	-11.5179
手紙	-11.5179
の始まり	-11.518
ディー	-11.518
オンリー	-11.518
▁えへ	-11.5181
隙	-11.5181
▁ゆな	-11.5181
いきました	-11.5182
コーン	-11.5182
ことよろー	-11.5183
抜	-11.5183
うめ	-11.5184
▁わかりみ	-11.5184
危	-11.5185
本当の	-11.5185
❤❤❤	-11.5186
いっぱいで	-11.5186
ならよかった	-11.5186
できる人	-11.5187
唯一	-11.5188
手前	-11.5188
ましゅ	-11.5189
KE	-11.519
出かけ	-11.519
ด	-11.519
😊🍀	-11.5191
🥺🫶🏻	-11.5191
ぐらいに	-11.5192
信じる	-11.5193
複雑	-11.5193
因	-11.5193
使います	-11.5194
予定なので	-11.5194
ありあり	-11.5194
night	-11.5195
ガク	-11.5196
人生の	-11.5197
大学生	-11.5197
寂し	-11.5197
ティング	-11.5198
せえ	-11.5198
爆上がり	-11.52
大人になって	-11.52
身体を	-11.52
通話できる	-11.5201
聴け	-11.5202
ありますように	-11.5203
視線	-11.5204
▁のあ	-11.5205
▁れな	-11.5205
会えて嬉しかったよ	-11.5206
チカ	-11.5208
▁ネット	-11.5209
良い事	-11.521
食べながら	-11.5211
▁応援してます	-11.5212
もよく	-11.5213
行きますね	-11.5213
引かない	-11.5213
だして	-11.5214
🌾	-11.5214
んだわ	-11.5216
現地で	-11.5218
レーション	-11.522
▁後は	-11.5221
再会	-11.5221
温度	-11.5221
好きなんだ	-11.5221
食べたことない	-11.5223
ありがとうだよ	-11.5224
そいつ	-11.5224
🧎	-11.5225
んこ	-11.5226
ならぬ	-11.5227
呼びやすいように呼んでください	-11.5228
家族に	-11.5228
▁えい	-11.5231
顔も	-11.5231
▁可愛すぎる	-11.5231
リアルに	-11.5232
絵師	-11.5233
オハ	-11.5235
けんさん	-11.5235
祈ってます	-11.5235
ぁぁぁあ	-11.5235
流行ってる	-11.5237
大変なこと	-11.5237
⋯	-11.5237
vo	-11.5238
がありますね	-11.5238
😭😭😭😭😭😭	-11.5239
ソリ	-11.5239
あると思う	-11.5239
繋がりましょう	-11.524
価値観	-11.5242
おすすめの	-11.5243
▁やた	-11.5244
ツキ	-11.5245
声も	-11.5245
仕事終わった	-11.5246
▁ダイ	-11.5247
⑉)	-11.5247
やるしかない	-11.5248
ドーナツ	-11.525
▁なおさん	-11.525
者に	-11.525
ミナ	-11.525
貯	-11.5251
BE	-11.5251
チェーン	-11.5252
シク	-11.5254
▁うぃ	-11.5255
永遠	-11.5255
🤜	-11.5255
渡し	-11.5255
▁too	-11.5258
気付いたら	-11.5258
美味しそうですね	-11.5259
垢から	-11.5259
になったので	-11.526
目指せ	-11.5261
猿	-11.5261
同盟	-11.5262
仮眠	-11.5262
がなくて	-11.5263
エエ	-11.5264
やったことない	-11.5265
▁アイス	-11.5265
ヌー	-11.5265
ッて	-11.5266
通し	-11.5266
〃	-11.5266
サムネ	-11.5266
すんの	-11.5267
⛩️	-11.5268
ニック	-11.5268
生き物	-11.5269
ォォォ	-11.5269
の量	-11.5271
～!!!	-11.5271
いただけると嬉しいです	-11.5273
▁この間	-11.5273
の友達	-11.5274
▁とら	-11.5274
たかな	-11.5275
物は	-11.5275
大変ですよね	-11.5276
エアコン	-11.5276
被る	-11.5278
数時間	-11.5278
憧れる	-11.5278
ジャニ	-11.5278
ࡇ	-11.5279
▁チ	-11.5279
▁トイレ	-11.528
▁よっ	-11.528
少女	-11.528
祝い	-11.5281
んだと思う	-11.5281
▁分かりました	-11.5282
リバ	-11.5282
▁すまん	-11.5282
▁裏	-11.5283
͒	-11.5285
🤛	-11.5285
予算	-11.5285
美容院	-11.5285
▁大丈夫か	-11.5285
レベルの	-11.5286
柚子	-11.5286
ハズ	-11.5286
▁りぷ	-11.5286
コンビニで	-11.5287
出会えて	-11.5287
持たせ	-11.5287
かもよ	-11.5288
▁こま	-11.5289
建て	-11.5291
優し	-11.5291
外からありがとうございます	-11.5291
グラス	-11.5292
じょう	-11.5293
体調が	-11.5296
誰に	-11.5296
敬語なしで	-11.5297
だと思った	-11.5297
じゃねえ	-11.5297
むずい	-11.5298
嬉しすぎ	-11.5298
いいんじゃない	-11.5299
アク	-11.5299
▁アー	-11.5301
絡んでくれてありがとう	-11.5301
ama	-11.5302
がめちゃくちゃ	-11.5302
ソンムル	-11.5303
構成	-11.5303
ゆゆ	-11.5305
▁大好きな	-11.5306
音声	-11.5306
繰り返し	-11.5307
感じました	-11.5308
ホスト	-11.5308
言ってるの	-11.5308
地下	-11.5309
エライ	-11.5309
判定	-11.531
[...]
